#include "sin_predictor.h"

const unsigned char sin_predictor_tflite[] = {
    0x1c, 0x00, 0x00, 0x00, 0x54, 0x46, 0x4c, 0x33, 0x14, 0x00, 0x20, 0x00,
    0x1c, 0x00, 0x18, 0x00, 0x14, 0x00, 0x10, 0x00, 0x0c, 0x00, 0x00, 0x00,
    0x08, 0x00, 0x04, 0x00, 0x14, 0x00, 0x00, 0x00, 0x1c, 0x00, 0x00, 0x00,
    0x8c, 0x00, 0x00, 0x00, 0xe4, 0x00, 0x00, 0x00, 0x00, 0x16, 0x00, 0x00,
    0x10, 0x16, 0x00, 0x00, 0xf8, 0x1d, 0x00, 0x00, 0x03, 0x00, 0x00, 0x00,
    0x01, 0x00, 0x00, 0x00, 0x10, 0x00, 0x00, 0x00, 0x00, 0x00, 0x0a, 0x00,
    0x10, 0x00, 0x0c, 0x00, 0x08, 0x00, 0x04, 0x00, 0x0a, 0x00, 0x00, 0x00,
    0x0c, 0x00, 0x00, 0x00, 0x1c, 0x00, 0x00, 0x00, 0x38, 0x00, 0x00, 0x00,
    0x0f, 0x00, 0x00, 0x00, 0x73, 0x65, 0x72, 0x76, 0x69, 0x6e, 0x67, 0x5f,
    0x64, 0x65, 0x66, 0x61, 0x75, 0x6c, 0x74, 0x00, 0x01, 0x00, 0x00, 0x00,
    0x04, 0x00, 0x00, 0x00, 0x9c, 0xff, 0xff, 0xff, 0x09, 0x00, 0x00, 0x00,
    0x04, 0x00, 0x00, 0x00, 0x07, 0x00, 0x00, 0x00, 0x64, 0x65, 0x6e, 0x73,
    0x65, 0x5f, 0x32, 0x00, 0x01, 0x00, 0x00, 0x00, 0x04, 0x00, 0x00, 0x00,
    0x8e, 0xea, 0xff, 0xff, 0x04, 0x00, 0x00, 0x00, 0x07, 0x00, 0x00, 0x00,
    0x69, 0x6e, 0x70, 0x75, 0x74, 0x5f, 0x31, 0x00, 0x02, 0x00, 0x00, 0x00,
    0x34, 0x00, 0x00, 0x00, 0x04, 0x00, 0x00, 0x00, 0xdc, 0xff, 0xff, 0xff,
    0x0c, 0x00, 0x00, 0x00, 0x04, 0x00, 0x00, 0x00, 0x13, 0x00, 0x00, 0x00,
    0x43, 0x4f, 0x4e, 0x56, 0x45, 0x52, 0x53, 0x49, 0x4f, 0x4e, 0x5f, 0x4d,
    0x45, 0x54, 0x41, 0x44, 0x41, 0x54, 0x41, 0x00, 0x08, 0x00, 0x0c, 0x00,
    0x08, 0x00, 0x04, 0x00, 0x08, 0x00, 0x00, 0x00, 0x0b, 0x00, 0x00, 0x00,
    0x04, 0x00, 0x00, 0x00, 0x13, 0x00, 0x00, 0x00, 0x6d, 0x69, 0x6e, 0x5f,
    0x72, 0x75, 0x6e, 0x74, 0x69, 0x6d, 0x65, 0x5f, 0x76, 0x65, 0x72, 0x73,
    0x69, 0x6f, 0x6e, 0x00, 0x0d, 0x00, 0x00, 0x00, 0x18, 0x15, 0x00, 0x00,
    0x10, 0x15, 0x00, 0x00, 0xfc, 0x14, 0x00, 0x00, 0xa4, 0x14, 0x00, 0x00,
    0x94, 0x13, 0x00, 0x00, 0x84, 0x03, 0x00, 0x00, 0x74, 0x02, 0x00, 0x00,
    0xa4, 0x00, 0x00, 0x00, 0x9c, 0x00, 0x00, 0x00, 0x94, 0x00, 0x00, 0x00,
    0x8c, 0x00, 0x00, 0x00, 0x6c, 0x00, 0x00, 0x00, 0x04, 0x00, 0x00, 0x00,
    0x36, 0xeb, 0xff, 0xff, 0x04, 0x00, 0x00, 0x00, 0x58, 0x00, 0x00, 0x00,
    0x0c, 0x00, 0x00, 0x00, 0x08, 0x00, 0x0e, 0x00, 0x08, 0x00, 0x04, 0x00,
    0x08, 0x00, 0x00, 0x00, 0x10, 0x00, 0x00, 0x00, 0x28, 0x00, 0x00, 0x00,
    0x00, 0x00, 0x06, 0x00, 0x08, 0x00, 0x04, 0x00, 0x06, 0x00, 0x00, 0x00,
    0x04, 0x00, 0x00, 0x00, 0x01, 0x00, 0x00, 0x00, 0xeb, 0x03, 0x00, 0x00,
    0x00, 0x00, 0x0a, 0x00, 0x10, 0x00, 0x0c, 0x00, 0x08, 0x00, 0x04, 0x00,
    0x0a, 0x00, 0x00, 0x00, 0x02, 0x00, 0x00, 0x00, 0x02, 0x00, 0x00, 0x00,
    0x04, 0x00, 0x00, 0x00, 0x06, 0x00, 0x00, 0x00, 0x32, 0x2e, 0x31, 0x30,
    0x2e, 0x31, 0x00, 0x00, 0x9a, 0xeb, 0xff, 0xff, 0x04, 0x00, 0x00, 0x00,
    0x10, 0x00, 0x00, 0x00, 0x31, 0x2e, 0x31, 0x34, 0x2e, 0x30, 0x00, 0x00,
    0x00, 0x00, 0x00, 0x00, 0x00, 0x00, 0x00, 0x00, 0x24, 0xeb, 0xff, 0xff,
    0x28, 0xeb, 0xff, 0xff, 0x2c, 0xeb, 0xff, 0xff, 0xc2, 0xeb, 0xff, 0xff,
    0x04, 0x00, 0x00, 0x00, 0xc0, 0x01, 0x00, 0x00, 0xc5, 0xd4, 0x22, 0xf3,
    0x13, 0xf9, 0xe5, 0xd5, 0x0d, 0xc5, 0xd8, 0xd7, 0x2b, 0xf1, 0xcf, 0xdd,
    0xf7, 0x02, 0xfa, 0xfe, 0x49, 0xff, 0xe4, 0xfa, 0x2a, 0xd2, 0xc3, 0x5e,
    0x06, 0x0c, 0x3f, 0x42, 0xdd, 0xce, 0xe2, 0x38, 0xf8, 0x0a, 0x32, 0xe6,
    0xc5, 0x42, 0xe5, 0xe5, 0x0f, 0xd1, 0x01, 0xca, 0x0d, 0x19, 0xd1, 0xf6,
    0x38, 0xeb, 0xcb, 0x46, 0x0c, 0xde, 0xf4, 0x0a, 0x06, 0x3f, 0xb0, 0xfe,
    0xd1, 0xfb, 0x07, 0xd9, 0x27, 0xfa, 0x3d, 0xca, 0x0a, 0x54, 0xe4, 0xc7,
    0x42, 0x27, 0x00, 0xeb, 0xd4, 0x0c, 0xef, 0x0e, 0x02, 0xe3, 0xe2, 0xd8,
    0xf9, 0xbb, 0x2f, 0x2a, 0x08, 0x28, 0xe3, 0x0d, 0xf3, 0xcb, 0xf9, 0x2a,
    0xf1, 0xe4, 0x29, 0x2e, 0xa7, 0xeb, 0x37, 0xda, 0x00, 0x34, 0xe4, 0xb0,
    0x2a, 0xe6, 0xde, 0xcf, 0x30, 0x2a, 0xd9, 0x13, 0xda, 0x0a, 0xd0, 0x0f,
    0x30, 0xc1, 0xf4, 0x22, 0x14, 0x37, 0x29, 0xef, 0xd7, 0xe3, 0x16, 0x0a,
    0xe0, 0x24, 0xed, 0x81, 0xd5, 0xb9, 0xcc, 0xf6, 0xbb, 0x08, 0x08, 0x2a,
    0xdc, 0xcc, 0x42, 0xe0, 0x17, 0x06, 0xed, 0xfd, 0xde, 0x17, 0x1d, 0x1b,
    0x54, 0x08, 0x09, 0xf6, 0xd4, 0x36, 0xee, 0xb9, 0xfc, 0xe5, 0x1a, 0x27,
    0xbc, 0xe5, 0x5c, 0xd6, 0xc1, 0x10, 0x54, 0x6a, 0x02, 0x1e, 0x22, 0x3b,
    0x0c, 0x00, 0x1d, 0xd3, 0xe2, 0x16, 0x02, 0x1d, 0x16, 0x37, 0x3a, 0xfb,
    0x31, 0x12, 0xe4, 0x40, 0x3b, 0xb6, 0x0c, 0x02, 0x11, 0x01, 0xf3, 0xea,
    0xb1, 0xbd, 0x59, 0x4d, 0xe2, 0x03, 0x04, 0x11, 0x0d, 0x0d, 0xdc, 0x0d,
    0xd3, 0xdc, 0xca, 0x04, 0x22, 0x34, 0x10, 0xe7, 0x1d, 0x29, 0xee, 0xfd,
    0x1f, 0xfd, 0x27, 0x13, 0x47, 0xc8, 0x00, 0x39, 0xce, 0xee, 0xde, 0xe1,
    0x30, 0x08, 0x18, 0xe6, 0xee, 0x10, 0x0b, 0xc5, 0x25, 0xe4, 0xf7, 0x21,
    0xe1, 0xff, 0x4c, 0xca, 0x2f, 0xf8, 0x03, 0x30, 0x3f, 0x08, 0x1d, 0xe7,
    0x17, 0xc9, 0xd9, 0xc9, 0x15, 0x1d, 0xef, 0xe1, 0xd6, 0x19, 0x34, 0x52,
    0xf8, 0xa7, 0x0f, 0x13, 0xeb, 0xe9, 0x02, 0xf7, 0x1e, 0x1a, 0xd5, 0xf5,
    0xfd, 0x1c, 0xd2, 0x42, 0x08, 0xeb, 0xf8, 0x3f, 0xd7, 0x14, 0x09, 0xcc,
    0x0f, 0x20, 0x2a, 0xb6, 0xf3, 0x28, 0x22, 0xda, 0xe3, 0x07, 0x1f, 0x06,
    0x06, 0xf5, 0x0a, 0x36, 0xfa, 0xd6, 0xd7, 0x1f, 0xfb, 0xfd, 0xf8, 0xde,
    0xd9, 0xcb, 0xc1, 0x16, 0xf6, 0x2a, 0xf3, 0x33, 0xe7, 0x26, 0x24, 0x04,
    0xcb, 0xec, 0xd7, 0x40, 0x0f, 0xf8, 0x10, 0x03, 0xc0, 0xd4, 0xde, 0xf3,
    0x0f, 0x1e, 0x5c, 0xf0, 0x88, 0x2e, 0xdf, 0x0a, 0x17, 0xd2, 0x1f, 0xe2,
    0x32, 0xea, 0x09, 0x2c, 0x04, 0x40, 0x1b, 0xd0, 0x22, 0xed, 0xd1, 0x4a,
    0x04, 0xad, 0x10, 0xc2, 0xc7, 0x56, 0xe6, 0xec, 0x4c, 0x52, 0x2d, 0x1b,
    0x47, 0x07, 0xf2, 0xd9, 0x0e, 0x33, 0xf3, 0x30, 0xe2, 0xff, 0xd8, 0xee,
    0xf7, 0x00, 0x34, 0xf5, 0xe2, 0x43, 0x01, 0x11, 0xfc, 0x25, 0xc8, 0xbc,
    0x26, 0xf6, 0x34, 0xc6, 0x17, 0x10, 0x3d, 0x2d, 0x01, 0xf2, 0xec, 0xe9,
    0x3f, 0x1e, 0xf0, 0x24, 0x24, 0x12, 0x2f, 0xf4, 0x12, 0xea, 0xbd, 0xe5,
    0xec, 0xe2, 0xe8, 0xfe, 0x37, 0xf7, 0x05, 0x23, 0xb0, 0x22, 0x46, 0xbd,
    0x8e, 0xed, 0xff, 0xff, 0x04, 0x00, 0x00, 0x00, 0x00, 0x01, 0x00, 0x00,
    0xbf, 0xff, 0xff, 0xff, 0xef, 0x0d, 0x00, 0x00, 0x41, 0xfb, 0xff, 0xff,
    0x29, 0x01, 0x00, 0x00, 0x27, 0xed, 0xff, 0xff, 0x02, 0xff, 0xff, 0xff,
    0xab, 0x00, 0x00, 0x00, 0x0a, 0xfe, 0xff, 0xff, 0x0a, 0x08, 0x00, 0x00,
    0x8d, 0xfe, 0xff, 0xff, 0x82, 0x0a, 0x00, 0x00, 0x13, 0xf4, 0xff, 0xff,
    0x73, 0xf3, 0xff, 0xff, 0xcc, 0xf6, 0xff, 0xff, 0xfa, 0x04, 0x00, 0x00,
    0x87, 0x02, 0x00, 0x00, 0x8f, 0xf4, 0xff, 0xff, 0xeb, 0x07, 0x00, 0x00,
    0x64, 0xf0, 0xff, 0xff, 0x87, 0x01, 0x00, 0x00, 0x27, 0xfc, 0xff, 0xff,
    0x29, 0x07, 0x00, 0x00, 0x9e, 0xf0, 0xff, 0xff, 0x11, 0x0c, 0x00, 0x00,
    0xc7, 0x18, 0x00, 0x00, 0xad, 0x08, 0x00, 0x00, 0x87, 0xfc, 0xff, 0xff,
    0xfa, 0xf4, 0xff, 0xff, 0x36, 0xf5, 0xff, 0xff, 0xb0, 0x0c, 0x00, 0x00,
    0x82, 0x04, 0x00, 0x00, 0x8c, 0xfa, 0xff, 0xff, 0x23, 0xf5, 0xff, 0xff,
    0xef, 0xeb, 0xff, 0xff, 0x2c, 0xf2, 0xff, 0xff, 0x61, 0xfe, 0xff, 0xff,
    0x77, 0x00, 0x00, 0x00, 0xfd, 0xf5, 0xff, 0xff, 0xa0, 0x07, 0x00, 0x00,
    0xd1, 0xfe, 0xff, 0xff, 0x67, 0x03, 0x00, 0x00, 0x3a, 0xfd, 0xff, 0xff,
    0x04, 0xf6, 0xff, 0xff, 0xd3, 0x0d, 0x00, 0x00, 0x85, 0xfa, 0xff, 0xff,
    0x6d, 0xfd, 0xff, 0xff, 0x7b, 0x10, 0x00, 0x00, 0xcd, 0xff, 0xff, 0xff,
    0xb2, 0xfa, 0xff, 0xff, 0x8a, 0x09, 0x00, 0x00, 0xd1, 0x13, 0x00, 0x00,
    0xef, 0xf2, 0xff, 0xff, 0x43, 0xff, 0xff, 0xff, 0x89, 0x07, 0x00, 0x00,
    0xc2, 0x0a, 0x00, 0x00, 0x26, 0x06, 0x00, 0x00, 0xaf, 0xf4, 0xff, 0xff,
    0x58, 0x07, 0x00, 0x00, 0x8a, 0xe9, 0xff, 0xff, 0x53, 0xec, 0xff, 0xff,
    0x8b, 0xe7, 0xff, 0xff, 0x03, 0xfe, 0xff, 0xff, 0x8e, 0xe2, 0xff, 0xff,
    0xbc, 0x04, 0x00, 0x00, 0x9a, 0xee, 0xff, 0xff, 0x04, 0x00, 0x00, 0x00,
    0x00, 0x10, 0x00, 0x00, 0x03, 0x08, 0xf7, 0xe4, 0xfd, 0xff, 0xfa, 0xf8,
    0xf9, 0x03, 0xee, 0xf8, 0x04, 0x01, 0x15, 0xff, 0xf3, 0x00, 0xf9, 0xfd,
    0x00, 0xe8, 0xfb, 0x0a, 0xf9, 0xfb, 0x03, 0x0a, 0x09, 0x01, 0x02, 0xf8,
    0x12, 0x02, 0xeb, 0x01, 0x03, 0x0c, 0x02, 0x03, 0x06, 0xf0, 0xe3, 0x0e,
    0xf6, 0x06, 0x00, 0xfb, 0x0b, 0xfe, 0x01, 0x09, 0xfd, 0xf7, 0x05, 0xfd,
    0xf8, 0xf4, 0x01, 0x09, 0x00, 0xfb, 0x01, 0xfb, 0xf6, 0x02, 0xf8, 0xfc,
    0x06, 0x05, 0x0f, 0xf7, 0x00, 0xfa, 0x0b, 0x0a, 0x1b, 0x09, 0xf9, 0xf7,
    0xfc, 0x04, 0x07, 0x03, 0xff, 0x02, 0xfd, 0x09, 0xfb, 0x04, 0xfa, 0x08,
    0xf6, 0xff, 0xfd, 0x04, 0x13, 0x14, 0xfa, 0xfe, 0x10, 0xf8, 0x06, 0x04,
    0x06, 0xf5, 0x0f, 0x06, 0x04, 0x09, 0x04, 0xfb, 0x03, 0x00, 0x02, 0xe9,
    0x07, 0x02, 0xfd, 0x03, 0x0b, 0x07, 0xff, 0x0d, 0x12, 0x00, 0x09, 0xea,
    0x03, 0xfa, 0x08, 0x0b, 0xf9, 0x09, 0x00, 0xe8, 0x0a, 0xfd, 0x06, 0x01,
    0x09, 0xfc, 0xfa, 0xf7, 0xf8, 0x01, 0x00, 0xfa, 0xfe, 0x0d, 0x0e, 0xe4,
    0x01, 0x04, 0x07, 0x03, 0xfc, 0x00, 0x00, 0x0b, 0xf6, 0x11, 0xfc, 0xeb,
    0x01, 0x09, 0x08, 0x06, 0xf8, 0xfd, 0x0c, 0x03, 0xff, 0x05, 0xec, 0x01,
    0x01, 0xff, 0x02, 0x0a, 0xff, 0xf7, 0x04, 0x04, 0xf5, 0x0e, 0x0d, 0x06,
    0x00, 0x06, 0x09, 0xfd, 0xff, 0x00, 0x02, 0xf5, 0x04, 0xfe, 0x08, 0xec,
    0x05, 0xf1, 0xf7, 0x09, 0xf8, 0x08, 0x05, 0xf6, 0xf0, 0x01, 0xfc, 0x02,
    0x01, 0x0e, 0x08, 0x06, 0xf9, 0x00, 0xff, 0x0e, 0xf9, 0xfd, 0xf9, 0x08,
    0xfb, 0x02, 0xfe, 0x08, 0x08, 0x09, 0x07, 0x04, 0xfe, 0x0a, 0xd1, 0xf8,
    0x05, 0xf4, 0xfe, 0x05, 0x06, 0x04, 0xff, 0x13, 0xff, 0x02, 0xfd, 0x00,
    0x09, 0x0c, 0x01, 0x04, 0xeb, 0x03, 0xfb, 0x08, 0x01, 0x08, 0xfe, 0x07,
    0xf9, 0x01, 0x0b, 0x06, 0xfd, 0x00, 0x0a, 0xf3, 0x09, 0xfa, 0xf7, 0x02,
    0xf9, 0xfa, 0xf7, 0x09, 0xfe, 0x03, 0x03, 0x07, 0xfd, 0x01, 0xfb, 0x03,
    0xeb, 0xff, 0xfb, 0x0b, 0xfa, 0xf4, 0x05, 0xf7, 0xf4, 0x04, 0x00, 0xfd,
    0x0b, 0xf6, 0x0c, 0x02, 0xf8, 0xf5, 0x0a, 0x05, 0x01, 0x02, 0xfc, 0x09,
    0xfd, 0xfb, 0x01, 0xff, 0x02, 0x07, 0x08, 0xf6, 0x11, 0x06, 0x06, 0xf6,
    0xfe, 0x02, 0xfd, 0xfe, 0x05, 0x0a, 0xfd, 0x11, 0x07, 0xfb, 0x0f, 0xf3,
    0xf7, 0xfe, 0xff, 0xf6, 0xff, 0x10, 0xfc, 0xff, 0x03, 0x06, 0x09, 0x07,
    0x06, 0xfd, 0xfe, 0x04, 0x11, 0x03, 0x02, 0x03, 0x08, 0x03, 0xf6, 0x0c,
    0x07, 0x04, 0x05, 0x06, 0xfc, 0xf9, 0x0b, 0x0c, 0x00, 0x04, 0x01, 0xfa,
    0x06, 0x03, 0x02, 0x1f, 0xff, 0xff, 0x02, 0xff, 0xf2, 0x0b, 0x05, 0x0e,
    0xfb, 0x00, 0xf8, 0x0c, 0x07, 0xfc, 0xfd, 0x16, 0xf9, 0x04, 0xfd, 0x14,
    0x02, 0xff, 0xf2, 0xff, 0x0a, 0x07, 0x07, 0x03, 0xf8, 0x0a, 0x07, 0xff,
    0x02, 0x08, 0x06, 0x00, 0xfe, 0xfe, 0xfb, 0xff, 0xe1, 0xf9, 0xfa, 0x08,
    0x02, 0x10, 0xf8, 0x07, 0xfd, 0xfc, 0x06, 0x02, 0x00, 0x0c, 0xfd, 0xf7,
    0xf9, 0xfc, 0x05, 0xfe, 0x05, 0xf7, 0xfe, 0x0f, 0x0b, 0xfe, 0x06, 0xf5,
    0xf0, 0xfa, 0xfb, 0xfc, 0x21, 0xfd, 0x00, 0x1a, 0xfd, 0xff, 0x03, 0x00,
    0x04, 0xfe, 0xf5, 0x01, 0x02, 0x09, 0x00, 0xef, 0xfa, 0xf9, 0x0d, 0xff,
    0x06, 0x02, 0x02, 0xf8, 0xfd, 0xee, 0xf9, 0xf5, 0x09, 0x04, 0xff, 0x00,
    0xf5, 0xfe, 0xfc, 0xfb, 0xfb, 0x0e, 0x04, 0x07, 0x02, 0x0e, 0xfb, 0xfa,
    0xf8, 0x06, 0x07, 0x02, 0xfe, 0xfc, 0xfd, 0x07, 0x00, 0xfd, 0x01, 0x14,
    0x08, 0x00, 0xf9, 0x02, 0xfc, 0x04, 0x03, 0xfe, 0xee, 0xf9, 0x07, 0x08,
    0xfd, 0x01, 0xff, 0xfa, 0x02, 0xf6, 0xfc, 0x0b, 0xff, 0xff, 0x06, 0xf3,
    0xfa, 0xfc, 0xfe, 0xf1, 0x0d, 0xfc, 0x04, 0xf7, 0xff, 0xfd, 0x08, 0xdf,
    0x06, 0xfd, 0x09, 0x07, 0x05, 0x02, 0x09, 0x06, 0x0e, 0x00, 0x06, 0xe4,
    0x11, 0xfa, 0xfb, 0x07, 0x04, 0x00, 0x00, 0xff, 0xf6, 0xeb, 0xfd, 0xfa,
    0xfe, 0xfa, 0xfa, 0xdc, 0xfd, 0xec, 0x02, 0x05, 0xfa, 0x0d, 0x0a, 0x07,
    0xf3, 0xfd, 0x09, 0x02, 0x04, 0x02, 0x04, 0x0e, 0xfd, 0x0a, 0x08, 0x0d,
    0xf3, 0x05, 0x06, 0xf8, 0xfd, 0x0d, 0x00, 0x04, 0x08, 0x06, 0xfc, 0xf7,
    0x02, 0xff, 0x04, 0xf0, 0xff, 0xff, 0x04, 0xf6, 0xf8, 0x04, 0x07, 0xf6,
    0x05, 0x05, 0x08, 0x08, 0x15, 0xfc, 0x00, 0x05, 0xfb, 0x0e, 0x01, 0xef,
    0x0a, 0xe4, 0xfc, 0xff, 0x03, 0xfb, 0xfb, 0xf0, 0x00, 0xfe, 0xfa, 0x04,
    0x0a, 0x0f, 0xf1, 0xf9, 0x00, 0x02, 0xfb, 0xf0, 0x01, 0x08, 0x03, 0xed,
    0xfb, 0x07, 0x02, 0xfd, 0x01, 0x13, 0x00, 0xf1, 0x02, 0xfd, 0xf9, 0xfc,
    0xfc, 0x06, 0x09, 0x08, 0xff, 0xfa, 0x09, 0x06, 0x00, 0x00, 0xfa, 0x09,
    0x0c, 0xfe, 0x05, 0x07, 0x10, 0x12, 0xff, 0x11, 0xfb, 0x02, 0x07, 0x02,
    0xfc, 0xf9, 0xef, 0xfe, 0xfc, 0x09, 0x06, 0x05, 0xfc, 0xfe, 0x03, 0xf0,
    0x07, 0x04, 0x02, 0x04, 0x00, 0x06, 0x03, 0x0a, 0x01, 0x07, 0xff, 0xef,
    0x02, 0x07, 0xfe, 0x0c, 0x02, 0x08, 0x06, 0x01, 0xff, 0x12, 0xef, 0x13,
    0x02, 0xfb, 0xf9, 0xf6, 0x09, 0xf7, 0x00, 0x03, 0x02, 0x06, 0x05, 0xfd,
    0x04, 0xfc, 0x05, 0x03, 0xfb, 0x00, 0x04, 0x08, 0xfc, 0x07, 0x08, 0x0c,
    0xf8, 0xf9, 0x06, 0xfd, 0xff, 0xfd, 0xe5, 0xfb, 0x03, 0x08, 0xff, 0x03,
    0x02, 0x0d, 0xfe, 0x25, 0xfc, 0xf8, 0x04, 0xfc, 0x03, 0xfd, 0xf7, 0xf6,
    0xed, 0xfe, 0x01, 0xf8, 0xff, 0xf6, 0x02, 0xf8, 0x02, 0xf9, 0xfa, 0x0b,
    0xf4, 0xeb, 0xf9, 0xf2, 0x06, 0xff, 0xf4, 0x0a, 0xec, 0xec, 0x03, 0xff,
    0x03, 0xf4, 0xf9, 0xf7, 0x03, 0x00, 0xfd, 0x00, 0xf4, 0xfc, 0x00, 0x06,
    0xf4, 0xfb, 0xfa, 0xd9, 0x08, 0x08, 0xf9, 0x06, 0xfe, 0x09, 0xdd, 0xec,
    0xf7, 0xf8, 0xfc, 0xfd, 0x01, 0x0e, 0xfd, 0xbe, 0xf6, 0x02, 0x06, 0x01,
    0x08, 0x03, 0xea, 0xf5, 0xda, 0x08, 0xfb, 0xea, 0xfe, 0x04, 0xf6, 0xfd,
    0x02, 0x02, 0x01, 0xfe, 0xee, 0x08, 0x12, 0xff, 0xf9, 0xf9, 0x03, 0xfc,
    0xf7, 0xed, 0x00, 0xff, 0xfc, 0xfa, 0xfa, 0xf8, 0x02, 0xfd, 0xfc, 0x08,
    0x0a, 0x00, 0x06, 0x05, 0x05, 0x03, 0x09, 0xf5, 0x13, 0x06, 0x03, 0xfd,
    0xfe, 0x06, 0x2b, 0xf7, 0x0c, 0x03, 0xf8, 0x03, 0x05, 0x05, 0x00, 0xef,
    0x09, 0x04, 0xff, 0x01, 0x0b, 0x00, 0x08, 0xf9, 0x0c, 0x03, 0x00, 0xf7,
    0x00, 0xfe, 0x05, 0x0d, 0x02, 0xf1, 0xf4, 0xfc, 0x05, 0x06, 0xeb, 0xfd,
    0xf9, 0x08, 0x02, 0x00, 0x05, 0x00, 0x02, 0xff, 0x00, 0x09, 0x04, 0x0d,
    0x0a, 0xfd, 0xf8, 0x01, 0x02, 0xff, 0xfd, 0x02, 0x0b, 0xea, 0xf8, 0xfb,
    0xfc, 0x00, 0x01, 0x06, 0xf8, 0x06, 0x18, 0xf5, 0x03, 0x0d, 0xf8, 0x02,
    0x04, 0xf7, 0x01, 0xe8, 0x01, 0xf8, 0x02, 0xfe, 0x0d, 0x05, 0x01, 0x08,
    0xf7, 0xf8, 0x0a, 0x04, 0xf4, 0x00, 0xfc, 0x05, 0x01, 0x05, 0xfc, 0xfb,
    0xfe, 0xe5, 0x10, 0xe9, 0xfe, 0x09, 0xf7, 0x03, 0xfb, 0xf5, 0x00, 0x06,
    0xff, 0xf1, 0x07, 0x04, 0xfd, 0x03, 0x07, 0xf7, 0x0c, 0x03, 0xfc, 0xf0,
    0xf9, 0x03, 0xfb, 0x04, 0x0b, 0x07, 0x01, 0x02, 0xfb, 0xf6, 0x06, 0xfd,
    0x03, 0x09, 0xfe, 0xfc, 0xfe, 0x01, 0x00, 0x38, 0xfd, 0xf7, 0x08, 0x02,
    0x07, 0xfc, 0xf6, 0x06, 0xee, 0x00, 0xfe, 0xe3, 0x0b, 0xf7, 0x01, 0x01,
    0x05, 0x02, 0x03, 0x17, 0xfc, 0xfb, 0xff, 0xe6, 0x00, 0xf1, 0x01, 0xf8,
    0xfc, 0xff, 0xf8, 0xfd, 0x01, 0xfe, 0x06, 0xfa, 0x07, 0x05, 0xfa, 0xf7,
    0xf3, 0x01, 0xfd, 0xf7, 0xf2, 0x04, 0xf1, 0x08, 0xf6, 0xfa, 0x00, 0xfd,
    0x00, 0xf9, 0x13, 0x07, 0x06, 0x09, 0xfe, 0x0d, 0xfe, 0xfc, 0x01, 0x25,
    0xfc, 0x02, 0xff, 0xff, 0xfd, 0x0e, 0xef, 0xfb, 0x11, 0xfd, 0x04, 0x09,
    0x09, 0x00, 0xfb, 0x02, 0x01, 0x0f, 0x01, 0xf9, 0x02, 0x03, 0x1f, 0xff,
    0xf7, 0x01, 0xf8, 0xff, 0xff, 0x04, 0xfe, 0x04, 0xfb, 0xfb, 0x02, 0xfd,
    0x04, 0x03, 0x05, 0x01, 0x10, 0x00, 0x00, 0x01, 0x08, 0xfe, 0xff, 0xf5,
    0x09, 0xf7, 0xfb, 0x02, 0x12, 0x0b, 0xef, 0x09, 0x03, 0x0d, 0x02, 0xff,
    0x07, 0xfd, 0xff, 0x10, 0xf6, 0xfc, 0x00, 0x05, 0x03, 0xfd, 0xfb, 0xf5,
    0xf2, 0x00, 0xfd, 0xe8, 0xfe, 0xfc, 0x04, 0xf2, 0x01, 0xf2, 0x02, 0x0a,
    0xfe, 0x12, 0xe5, 0xfd, 0xfe, 0xff, 0xfa, 0xfc, 0x13, 0x17, 0xfe, 0xfe,
    0xfd, 0xfd, 0x06, 0x0b, 0xf5, 0xfe, 0x04, 0xf4, 0xf2, 0xff, 0x04, 0x0b,
    0xfd, 0xeb, 0xfa, 0x07, 0x03, 0xf7, 0x02, 0xfd, 0xf8, 0x04, 0xe9, 0xff,
    0x04, 0xef, 0xfd, 0xfe, 0x05, 0x00, 0x02, 0xc3, 0x09, 0x09, 0x07, 0xfd,
    0xf9, 0xf8, 0xef, 0xfb, 0xf3, 0x04, 0x01, 0xf9, 0xf9, 0x03, 0xfc, 0x0c,
    0x00, 0x09, 0xf7, 0xfa, 0xf8, 0xf9, 0xf2, 0x11, 0xfd, 0xf8, 0xf9, 0xfa,
    0xf4, 0xfd, 0xf7, 0x08, 0xfc, 0xf4, 0xff, 0x06, 0xf9, 0xfc, 0x01, 0x08,
    0x0b, 0x01, 0xff, 0x07, 0xf7, 0xf5, 0xfb, 0xfa, 0xf6, 0x08, 0x03, 0x04,
    0xf6, 0xfa, 0xe5, 0x0b, 0x01, 0x03, 0xff, 0xff, 0x01, 0x04, 0x02, 0x33,
    0xfb, 0xfc, 0x01, 0x00, 0x0b, 0xfc, 0x07, 0xf9, 0x12, 0x03, 0xff, 0x05,
    0xfa, 0x00, 0x01, 0xeb, 0xfb, 0x07, 0xfa, 0x05, 0x01, 0xf2, 0x10, 0xfa,
    0x06, 0xfb, 0x03, 0xfd, 0x00, 0xf9, 0xfe, 0xfb, 0xfb, 0x02, 0xf7, 0xfa,
    0xf8, 0xff, 0xf7, 0xfa, 0x0d, 0xff, 0x07, 0xf5, 0x14, 0x05, 0x03, 0x0c,
    0x07, 0xfd, 0x03, 0x01, 0xf7, 0xf8, 0x36, 0x05, 0x0f, 0x06, 0x04, 0xf8,
    0xfe, 0xfd, 0x02, 0x36, 0x02, 0xf9, 0xfe, 0x04, 0xfe, 0xfa, 0x00, 0x0f,
    0x01, 0x02, 0xfa, 0xee, 0xfb, 0x04, 0xf9, 0xf3, 0xff, 0xfb, 0xff, 0x0d,
    0x02, 0x02, 0xf4, 0x10, 0x04, 0x07, 0x02, 0xfb, 0x04, 0x05, 0x05, 0x02,
    0xfd, 0x03, 0x07, 0xfd, 0x03, 0x03, 0x03, 0x00, 0x0a, 0xfc, 0x05, 0x01,
    0x15, 0xfa, 0xfb, 0x09, 0x08, 0xff, 0xfe, 0x03, 0x02, 0x05, 0x0d, 0x0b,
    0xfe, 0xff, 0xf9, 0xfb, 0x03, 0xff, 0xfd, 0xea, 0x03, 0xf8, 0xfe, 0xfe,
    0xf8, 0xf9, 0xfa, 0xfd, 0xf8, 0xfb, 0xfb, 0xea, 0x02, 0x00, 0x08, 0x0e,
    0xf9, 0xfe, 0x07, 0xf9, 0xff, 0x0a, 0xec, 0x10, 0x0c, 0x01, 0x07, 0xf8,
    0xff, 0x04, 0x04, 0xf9, 0xfe, 0xf6, 0x02, 0x02, 0xfc, 0x03, 0xf5, 0x07,
    0xec, 0xfd, 0x00, 0xfa, 0xf3, 0x04, 0x07, 0xf3, 0x09, 0xff, 0xff, 0x00,
    0xfe, 0xfb, 0xf2, 0x05, 0xf3, 0xff, 0xfb, 0xfa, 0xfe, 0xfd, 0x03, 0xe6,
    0xfe, 0xf7, 0x03, 0xff, 0xfa, 0xfc, 0x07, 0xfc, 0x10, 0x03, 0x05, 0x06,
    0xf9, 0xfd, 0x05, 0x0d, 0xfd, 0xfd, 0x01, 0xfd, 0xfe, 0x05, 0x06, 0xf6,
    0x04, 0xf4, 0xdd, 0xf2, 0x06, 0xf0, 0xfd, 0xfb, 0x02, 0xfe, 0x08, 0xe9,
    0x02, 0x04, 0xfa, 0x02, 0x04, 0x05, 0xfa, 0x08, 0x0a, 0xf9, 0xf7, 0xea,
    0x10, 0xfc, 0x05, 0x03, 0xfa, 0x00, 0xc6, 0x04, 0xff, 0xe0, 0x03, 0x04,
    0xf9, 0xf7, 0xf8, 0xcd, 0x00, 0x01, 0x0e, 0xfc, 0xff, 0xf9, 0x03, 0xfd,
    0x15, 0x04, 0x09, 0x04, 0xfa, 0xff, 0x01, 0xfd, 0xff, 0x02, 0xf8, 0x15,
    0x01, 0x05, 0xf1, 0x06, 0x0a, 0xf7, 0xf8, 0x05, 0x10, 0x05, 0xff, 0x09,
    0x01, 0x13, 0x04, 0xf7, 0xf5, 0xfe, 0xf8, 0x03, 0xf0, 0x02, 0x00, 0x02,
    0xf2, 0x0a, 0x09, 0x03, 0x05, 0xf6, 0x03, 0x04, 0xfe, 0x04, 0xf4, 0x02,
    0xf6, 0xfc, 0x02, 0xfd, 0xfd, 0xfe, 0x04, 0x07, 0x07, 0xfd, 0xfd, 0x00,
    0xff, 0xfd, 0x0c, 0x07, 0xf1, 0xf9, 0x02, 0xf2, 0x02, 0x03, 0x03, 0xff,
    0xfb, 0xfb, 0x10, 0x05, 0x02, 0x07, 0xfc, 0xf5, 0x00, 0x05, 0x06, 0xfa,
    0x07, 0xfb, 0xf9, 0x02, 0x06, 0xf2, 0x08, 0x02, 0x00, 0x00, 0xfd, 0xfb,
    0xfc, 0xfa, 0xf8, 0x03, 0xf6, 0xf0, 0x00, 0xf4, 0xf3, 0xf4, 0xfb, 0x03,
    0x07, 0x08, 0x1d, 0xff, 0x01, 0xfa, 0xff, 0xfb, 0xfc, 0x04, 0xfc, 0xe0,
    0xf7, 0x09, 0x09, 0xfd, 0xf8, 0x0c, 0xf7, 0xf4, 0xf3, 0xfb, 0x05, 0x03,
    0xfb, 0x02, 0x00, 0x07, 0x02, 0xf7, 0x08, 0xef, 0x04, 0x03, 0xef, 0x14,
    0x03, 0xf5, 0xf4, 0xfa, 0x0a, 0xfc, 0xf8, 0x00, 0x05, 0x16, 0xf9, 0xfc,
    0xf9, 0xfe, 0xf7, 0xf6, 0xf9, 0xfe, 0xfe, 0xfe, 0x02, 0xfa, 0xfb, 0xf1,
    0x0b, 0xf9, 0x04, 0x02, 0x06, 0x08, 0x0c, 0x05, 0xf9, 0xee, 0xf9, 0xfe,
    0xff, 0xff, 0x00, 0xf8, 0x07, 0x02, 0x05, 0xfc, 0x08, 0xff, 0x09, 0x07,
    0xf9, 0xf6, 0x0b, 0xf8, 0xfb, 0xff, 0xfc, 0x11, 0xfd, 0xff, 0xf5, 0xed,
    0xfa, 0xf2, 0x0c, 0xf0, 0x01, 0xfa, 0x03, 0x08, 0x01, 0xf8, 0xfe, 0xfd,
    0xfe, 0xf5, 0xff, 0x0e, 0x04, 0x03, 0xfc, 0x07, 0x0c, 0xfc, 0x05, 0xf7,
    0x04, 0x12, 0xf5, 0xf1, 0x0b, 0x07, 0xfc, 0xfb, 0xfe, 0xf8, 0x10, 0x05,
    0x02, 0x08, 0x02, 0xfb, 0x00, 0x04, 0x01, 0x16, 0x01, 0xf7, 0x02, 0x03,
    0xf9, 0x03, 0x0e, 0x07, 0x12, 0xfa, 0x00, 0x13, 0x03, 0x00, 0x04, 0xe9,
    0xfc, 0x00, 0x03, 0xf7, 0x00, 0x10, 0xf7, 0x11, 0xf7, 0x01, 0xf9, 0x07,
    0xf8, 0x05, 0xfa, 0xfc, 0x04, 0xec, 0x07, 0xfb, 0x04, 0x01, 0xfe, 0xfd,
    0xfd, 0x02, 0xfc, 0x06, 0x0b, 0x13, 0x09, 0x02, 0x00, 0x02, 0xfb, 0xf9,
    0x08, 0x0b, 0x11, 0xf6, 0x05, 0x07, 0x07, 0xfb, 0xff, 0x00, 0xfe, 0xfe,
    0x01, 0x09, 0xfc, 0xfd, 0xf6, 0x05, 0xf3, 0x0d, 0xf1, 0x02, 0xfc, 0x06,
    0x03, 0x05, 0xf9, 0xee, 0x00, 0xf9, 0x00, 0xf7, 0x01, 0x0b, 0xea, 0x07,
    0xf8, 0xff, 0xfa, 0x0d, 0x01, 0x01, 0xfb, 0x0d, 0x00, 0xf1, 0x00, 0x0d,
    0xfd, 0x00, 0xfb, 0x00, 0x04, 0xfe, 0x01, 0xf6, 0x0a, 0xf8, 0x03, 0x16,
    0x0c, 0x03, 0x00, 0x05, 0x03, 0x01, 0x0e, 0xf5, 0x0d, 0xfd, 0x04, 0x00,
    0x07, 0xfb, 0xfe, 0x17, 0xf3, 0x06, 0xf2, 0x01, 0x04, 0xf9, 0xf9, 0xf9,
    0xf6, 0x03, 0x00, 0x02, 0x06, 0x02, 0x04, 0x07, 0x04, 0x0f, 0x0b, 0xf2,
    0xf9, 0x0a, 0xf3, 0xfe, 0x0b, 0x01, 0xf5, 0x04, 0x00, 0x04, 0x07, 0x01,
    0x04, 0x0f, 0x08, 0x06, 0x03, 0xff, 0x0d, 0xfd, 0xfe, 0x05, 0x00, 0x02,
    0x00, 0xee, 0x0e, 0xf8, 0xfa, 0x04, 0x06, 0x05, 0xfa, 0xf5, 0x0b, 0xe1,
    0x07, 0x08, 0x05, 0xfd, 0x00, 0x02, 0xfe, 0x08, 0xf7, 0xfe, 0x04, 0xfe,
    0x09, 0x00, 0x11, 0xfb, 0xef, 0x00, 0xfe, 0xec, 0x04, 0x08, 0x02, 0xfe,
    0xfc, 0x0c, 0x04, 0x06, 0x07, 0x0e, 0x04, 0xf8, 0xf8, 0xff, 0xf8, 0xf8,
    0xfa, 0x06, 0xf9, 0xfb, 0xfd, 0xfb, 0xfe, 0x0d, 0xfa, 0xfc, 0xfd, 0xf9,
    0xfb, 0x05, 0x07, 0x06, 0x0e, 0xf5, 0xfd, 0xf2, 0xfd, 0xf2, 0x02, 0xfe,
    0x04, 0xf8, 0x2b, 0xfa, 0x0b, 0x07, 0x05, 0xfe, 0x06, 0x02, 0xfe, 0x18,
    0xfd, 0xfc, 0x01, 0xfc, 0xfa, 0xf6, 0xfb, 0xfe, 0x09, 0x01, 0xfa, 0xf4,
    0xf9, 0xfb, 0x04, 0xef, 0x09, 0xfb, 0xf2, 0x0c, 0x01, 0xfc, 0xfe, 0x06,
    0xfa, 0x06, 0x05, 0xfc, 0xfd, 0xf9, 0xfd, 0x02, 0xfb, 0x03, 0x01, 0xf5,
    0xee, 0x01, 0x04, 0x07, 0x01, 0x03, 0xfe, 0xf7, 0x06, 0x11, 0xf4, 0x01,
    0x02, 0x0d, 0x02, 0x02, 0xf3, 0xf5, 0xe7, 0x0a, 0xf1, 0xf9, 0x02, 0xfa,
    0xfd, 0x00, 0x03, 0xe4, 0xfc, 0xfb, 0x06, 0xfd, 0xfa, 0x01, 0x06, 0xfa,
    0x0c, 0x04, 0x01, 0xfd, 0xf8, 0x06, 0xf6, 0xfb, 0xf9, 0x00, 0xfe, 0xf8,
    0xfe, 0xf4, 0xf4, 0x10, 0xf7, 0x07, 0xf8, 0xfc, 0x01, 0x09, 0xfa, 0x03,
    0x01, 0xf5, 0xff, 0x0a, 0xfe, 0xfe, 0x01, 0xf8, 0xef, 0x00, 0x08, 0x00,
    0xf9, 0xe8, 0xfb, 0xfe, 0x02, 0xfb, 0x05, 0xfa, 0x05, 0x11, 0x01, 0x00,
    0xfb, 0x00, 0xf9, 0xf6, 0xfc, 0xfa, 0x02, 0xff, 0xfd, 0xfc, 0xf9, 0xfc,
    0x02, 0xfe, 0xfa, 0x0c, 0xee, 0xf8, 0x00, 0xf0, 0xfa, 0x03, 0x07, 0x13,
    0xfb, 0xf8, 0xf5, 0x12, 0xf7, 0xfd, 0x0e, 0xeb, 0x05, 0x0b, 0xf3, 0x05,
    0xee, 0xfc, 0xfc, 0xfb, 0x02, 0xeb, 0x08, 0xfd, 0x05, 0xfe, 0x03, 0xf8,
    0x0d, 0xfe, 0xfc, 0xfb, 0x03, 0xf0, 0xf7, 0x03, 0xf7, 0xff, 0x00, 0x02,
    0x02, 0x07, 0xf9, 0xfe, 0x01, 0xfd, 0x06, 0x06, 0x04, 0x02, 0xfc, 0x0a,
    0x00, 0x07, 0xfc, 0x04, 0x03, 0xfa, 0xed, 0xfe, 0x00, 0x0a, 0x09, 0xef,
    0xff, 0xfd, 0xff, 0xf0, 0xf9, 0x0b, 0xf9, 0xe4, 0xff, 0x05, 0x0f, 0xfa,
    0xf9, 0xfb, 0x04, 0x03, 0x02, 0x04, 0xf9, 0xf6, 0x04, 0x08, 0x04, 0x04,
    0x0b, 0xfe, 0xfe, 0x0a, 0xfe, 0xfd, 0x01, 0x04, 0x06, 0x17, 0x02, 0x0d,
    0x0c, 0xf4, 0xf9, 0x01, 0x02, 0x08, 0xff, 0x03, 0x0f, 0xf8, 0x02, 0x02,
    0x04, 0xfc, 0x00, 0x1f, 0x06, 0x03, 0xfc, 0xfe, 0x04, 0x09, 0xf1, 0x0f,
    0xf5, 0x02, 0xfa, 0xe7, 0x08, 0x04, 0x02, 0x01, 0x02, 0xf9, 0x05, 0x03,
    0xfa, 0xfa, 0xf7, 0xf8, 0xfe, 0x01, 0x04, 0xf7, 0x04, 0xf3, 0x01, 0xf4,
    0xfd, 0xf1, 0x09, 0xfc, 0xff, 0x05, 0x05, 0x08, 0x02, 0xfa, 0xff, 0x01,
    0x11, 0x19, 0x06, 0x0b, 0x00, 0x0c, 0x02, 0x01, 0xf9, 0xf8, 0xfc, 0xf5,
    0xf4, 0x10, 0xf9, 0xfd, 0x02, 0xfc, 0xfb, 0x1c, 0x09, 0x03, 0x06, 0x02,
    0x0b, 0x13, 0x08, 0x09, 0xef, 0x0b, 0x03, 0xfa, 0xfe, 0xfd, 0x02, 0xf9,
    0xff, 0xf7, 0xfb, 0xdf, 0xfb, 0x06, 0x03, 0x02, 0xfd, 0x05, 0x03, 0xfc,
    0xf2, 0x06, 0x02, 0x04, 0xff, 0xff, 0xf7, 0x07, 0xf9, 0x01, 0x0c, 0x0c,
    0x18, 0x02, 0x05, 0xfd, 0x0b, 0xf5, 0xfd, 0x08, 0x09, 0x0d, 0xff, 0xf4,
    0xff, 0x07, 0x18, 0xfa, 0xf7, 0x07, 0xf8, 0xff, 0x05, 0x02, 0x04, 0x2f,
    0x05, 0xf8, 0xfb, 0x06, 0x03, 0xfc, 0x0a, 0x04, 0xfb, 0x07, 0xff, 0xff,
    0xfb, 0x00, 0x0b, 0xfd, 0x03, 0x08, 0xfa, 0x13, 0xf5, 0xf4, 0xfe, 0x0e,
    0xfd, 0x0c, 0x05, 0xfc, 0xff, 0xf5, 0xf6, 0x08, 0x05, 0x03, 0x0d, 0x0d,
    0x02, 0x02, 0xfb, 0xf3, 0x06, 0x06, 0x04, 0x01, 0xf4, 0xf6, 0xfd, 0x14,
    0x03, 0xfd, 0x00, 0x02, 0x06, 0x02, 0xfe, 0xfe, 0xf8, 0x0a, 0xff, 0x02,
    0x04, 0x04, 0x01, 0x37, 0x06, 0xf6, 0x0a, 0x00, 0x0c, 0x0e, 0xf7, 0x0c,
    0x10, 0x05, 0x06, 0xfc, 0x02, 0xfb, 0xfa, 0xfd, 0x02, 0x0c, 0x08, 0x0b,
    0xfd, 0xfe, 0x0e, 0x09, 0xfb, 0x08, 0xf3, 0xfb, 0xf6, 0xed, 0x02, 0xf7,
    0x00, 0x0d, 0xfb, 0xf7, 0x07, 0x00, 0x08, 0x0b, 0xf5, 0xfe, 0xfb, 0x08,
    0x07, 0x00, 0xfb, 0x09, 0x0e, 0x06, 0x00, 0xfa, 0x03, 0x0a, 0xfc, 0xf0,
    0xfc, 0xf3, 0xf9, 0x04, 0x01, 0xfd, 0x02, 0x2f, 0x03, 0xf4, 0x09, 0x05,
    0x05, 0xfe, 0x01, 0x09, 0xe6, 0xfe, 0xfa, 0xf9, 0xff, 0xfd, 0x07, 0x0e,
    0x02, 0xf7, 0xff, 0x18, 0xfd, 0x14, 0x02, 0xf0, 0x0b, 0x03, 0xf8, 0xf9,
    0x07, 0x0e, 0xfa, 0x00, 0x00, 0xf8, 0xfd, 0xfb, 0xfc, 0xfc, 0x07, 0xfe,
    0x08, 0x01, 0x03, 0x0e, 0xf5, 0xf8, 0x06, 0x0e, 0xf0, 0xfd, 0x06, 0x07,
    0x0b, 0x08, 0xff, 0x07, 0x08, 0xf1, 0x06, 0x07, 0x04, 0xfd, 0xfe, 0x07,
    0xff, 0x0b, 0x04, 0xfb, 0xf7, 0x03, 0x08, 0x03, 0x04, 0x06, 0xfc, 0x05,
    0xf9, 0x07, 0xfd, 0x0d, 0xfd, 0xfa, 0x07, 0xf3, 0x0a, 0x12, 0x02, 0xfd,
    0x04, 0xfe, 0x0d, 0x01, 0xfa, 0x02, 0x00, 0x01, 0x06, 0xed, 0xf8, 0x04,
    0xe9, 0xff, 0x06, 0x04, 0xfa, 0x03, 0x06, 0x03, 0x08, 0x14, 0x00, 0xff,
    0xf7, 0x01, 0xff, 0xf5, 0xfb, 0xf1, 0xed, 0x00, 0xf3, 0x00, 0xfc, 0x04,
    0x02, 0xf8, 0x03, 0x15, 0x08, 0x09, 0xf7, 0x02, 0x00, 0x08, 0xed, 0xf7,
    0xf5, 0x05, 0x09, 0xfd, 0x09, 0xf8, 0x03, 0x02, 0xfe, 0x0b, 0xf9, 0xe4,
    0x06, 0x03, 0xf6, 0xf5, 0xf8, 0x09, 0xf8, 0xfc, 0x04, 0x05, 0xfe, 0xfd,
    0xfe, 0x04, 0x08, 0x01, 0xff, 0x05, 0x08, 0x01, 0x01, 0x02, 0xfe, 0x06,
    0x08, 0xf2, 0xfb, 0xff, 0x08, 0x08, 0xfe, 0xfc, 0x04, 0x05, 0xe2, 0x07,
    0xfb, 0x04, 0x04, 0x05, 0xff, 0x08, 0x03, 0x0b, 0x09, 0xf8, 0x06, 0x00,
    0x0f, 0x04, 0x0f, 0x06, 0xf8, 0x09, 0x06, 0xfb, 0xfa, 0x0a, 0x01, 0xff,
    0x00, 0x08, 0x08, 0xf7, 0xf4, 0x19, 0xff, 0x05, 0xf6, 0xff, 0x0d, 0x04,
    0xfc, 0xf8, 0x02, 0xfd, 0x02, 0xfa, 0x00, 0xf3, 0xf9, 0x02, 0x02, 0x0d,
    0xf2, 0x02, 0xff, 0x09, 0xf6, 0x04, 0xf6, 0xf4, 0x03, 0xfa, 0x01, 0xfd,
    0xfb, 0x08, 0x18, 0x0b, 0xfe, 0x13, 0x09, 0x06, 0x08, 0x06, 0x04, 0x08,
    0x08, 0xfe, 0x07, 0x00, 0x02, 0x0b, 0xf5, 0x0a, 0x19, 0x03, 0x00, 0x0d,
    0x08, 0x02, 0x02, 0x01, 0x04, 0xfc, 0xf7, 0x1a, 0x06, 0xf8, 0xf6, 0x04,
    0x07, 0xf4, 0x03, 0x01, 0xfe, 0xef, 0x05, 0xf8, 0x00, 0xfc, 0xfe, 0xff,
    0x01, 0xfe, 0xfe, 0xf6, 0xfa, 0x02, 0x05, 0x03, 0xfe, 0x00, 0xff, 0x0b,
    0x04, 0xfc, 0xfe, 0xfd, 0x07, 0x01, 0xd5, 0x09, 0x0e, 0xff, 0xfc, 0x03,
    0x04, 0x02, 0x04, 0x1b, 0x00, 0x01, 0x01, 0x04, 0x01, 0x02, 0xf8, 0xf5,
    0x06, 0x01, 0x07, 0xf2, 0x01, 0xf9, 0x02, 0xfd, 0xfd, 0xf4, 0x07, 0x23,
    0xf9, 0xe4, 0x0e, 0xf6, 0xfe, 0xfd, 0x00, 0x04, 0xf9, 0xe7, 0x08, 0xf9,
    0x03, 0x0e, 0xf7, 0x08, 0x03, 0x00, 0xfc, 0xf0, 0x05, 0xfa, 0xfd, 0xfc,
    0xe7, 0xee, 0xfb, 0xef, 0x02, 0xfe, 0xfb, 0x02, 0x01, 0xf9, 0xce, 0xf0,
    0xf6, 0xfd, 0xfd, 0xfd, 0xf9, 0x05, 0x00, 0xd7, 0xf5, 0x00, 0xfc, 0xfc,
    0x12, 0xf8, 0xe0, 0xf4, 0xea, 0xff, 0x06, 0xd7, 0xfe, 0x04, 0xfb, 0xfa,
    0xfd, 0x11, 0x13, 0x1a, 0xf9, 0x03, 0x05, 0xfa, 0x0f, 0x02, 0xf8, 0xf6,
    0x0c, 0x00, 0x06, 0xfe, 0x04, 0x1a, 0xfb, 0xff, 0xfe, 0x05, 0x05, 0x0d,
    0xfc, 0x06, 0x00, 0x07, 0xf1, 0x0a, 0x01, 0x0b, 0x02, 0x08, 0x01, 0xfe,
    0xfe, 0x01, 0xf2, 0xfd, 0x09, 0x03, 0x03, 0xff, 0xfe, 0x03, 0xf4, 0x38,
    0x04, 0xf1, 0x05, 0x04, 0x10, 0xff, 0x17, 0x01, 0x17, 0x02, 0xfb, 0xe9,
    0xff, 0xff, 0xff, 0xdd, 0xfd, 0x0a, 0xff, 0xe1, 0xf7, 0x01, 0xf4, 0xef,
    0xee, 0x03, 0x1d, 0xfc, 0xf9, 0x01, 0x04, 0xfb, 0x02, 0xed, 0x0a, 0xf7,
    0xd7, 0xfd, 0x01, 0xfe, 0xec, 0xfc, 0xfe, 0x06, 0x01, 0xf3, 0xf3, 0x08,
    0x01, 0x07, 0x03, 0x04, 0x01, 0x09, 0x11, 0x16, 0x01, 0xfa, 0xf8, 0x05,
    0x06, 0x02, 0x05, 0x1f, 0x03, 0xf8, 0xff, 0xfd, 0x07, 0xf9, 0xf4, 0xfe,
    0xeb, 0x07, 0xfb, 0xfe, 0x05, 0x04, 0x07, 0xfe, 0x05, 0xf6, 0xf7, 0xf8,
    0xfd, 0x01, 0xf5, 0x0a, 0xf6, 0xfe, 0x06, 0x0f, 0x02, 0x00, 0x05, 0x01,
    0xfc, 0xfd, 0xfb, 0x03, 0xf8, 0x02, 0x09, 0xfe, 0x04, 0x05, 0x02, 0xfb,
    0xfd, 0xf2, 0xf2, 0x09, 0x0b, 0x08, 0x02, 0x01, 0xfd, 0x09, 0xc0, 0x00,
    0xfb, 0x10, 0xfc, 0x01, 0xfe, 0xf9, 0xfe, 0x1e, 0xf5, 0x07, 0xfe, 0x00,
    0xff, 0xf5, 0x03, 0x03, 0x03, 0x03, 0xf8, 0xfe, 0x06, 0xfc, 0x08, 0x0c,
    0x05, 0x03, 0x0a, 0xeb, 0xf7, 0x11, 0x0e, 0xf4, 0xf8, 0xfa, 0x03, 0xfe,
    0xf5, 0xf8, 0x01, 0xfd, 0x02, 0xfe, 0xf9, 0xff, 0xf7, 0x00, 0x09, 0x06,
    0xfe, 0xfb, 0x00, 0xf4, 0x00, 0x09, 0x02, 0xfb, 0x08, 0x05, 0xff, 0xf9,
    0xff, 0x02, 0x0d, 0x0a, 0x06, 0x10, 0xf5, 0x02, 0x04, 0x02, 0x01, 0x2b,
    0xf8, 0x08, 0x04, 0x01, 0x06, 0x01, 0xff, 0xf9, 0x02, 0xfc, 0xf5, 0x0d,
    0x09, 0xfe, 0xff, 0x11, 0x03, 0xf2, 0x06, 0x12, 0xfa, 0xff, 0x03, 0x02,
    0x0c, 0xfc, 0xfc, 0xee, 0xed, 0x02, 0xf8, 0xff, 0x03, 0xf2, 0xfb, 0xf8,
    0x0d, 0x05, 0x07, 0xff, 0x07, 0x00, 0xf9, 0x04, 0xfa, 0xee, 0xfd, 0x00,
    0xfc, 0x0c, 0xff, 0x03, 0xf9, 0x06, 0xf1, 0xe7, 0x04, 0xed, 0xfc, 0x04,
    0xf7, 0x02, 0xf9, 0x81, 0xf7, 0x02, 0xfa, 0xfe, 0xf5, 0xf6, 0x01, 0x02,
    0x0c, 0xfc, 0x07, 0xeb, 0x02, 0xfc, 0xfa, 0xf8, 0x00, 0x07, 0x0d, 0x03,
    0x01, 0x0d, 0x13, 0x02, 0x0b, 0x06, 0xee, 0x08, 0xf3, 0xf4, 0xf8, 0xfd,
    0xfc, 0xf1, 0x05, 0xf7, 0x07, 0x02, 0x0a, 0x00, 0xf4, 0x03, 0x02, 0xfb,
    0x02, 0x02, 0xfb, 0x02, 0xfd, 0x05, 0x02, 0x06, 0x04, 0x04, 0x15, 0xf6,
    0x06, 0x00, 0x00, 0x06, 0x03, 0x08, 0xff, 0xe6, 0xfe, 0x01, 0x07, 0xfd,
    0x08, 0x11, 0xf5, 0xfc, 0xe6, 0x07, 0x03, 0xfe, 0x06, 0x04, 0x02, 0xee,
    0xf8, 0x01, 0x06, 0xf7, 0x0a, 0x0b, 0xf3, 0xf4, 0xfa, 0x06, 0xf7, 0x0a,
    0xfd, 0x18, 0xfa, 0x0a, 0x01, 0x09, 0x07, 0xf6, 0x03, 0xff, 0x07, 0xff,
    0xf3, 0x05, 0x00, 0xf8, 0x08, 0xfe, 0xf7, 0x00, 0x0a, 0xfd, 0xf8, 0x01,
    0x03, 0xf7, 0x0c, 0xfd, 0xff, 0xf2, 0x00, 0x03, 0xfc, 0x04, 0xfe, 0x10,
    0xfc, 0x07, 0x04, 0xff, 0x07, 0xfc, 0xee, 0xff, 0x11, 0x06, 0x08, 0x17,
    0x09, 0x00, 0xfe, 0x01, 0x07, 0xfa, 0xfa, 0x0d, 0xfc, 0x00, 0x0a, 0x08,
    0x01, 0x04, 0x01, 0xfb, 0xf9, 0x06, 0x06, 0x04, 0x00, 0x01, 0xfb, 0xf7,
    0x05, 0x01, 0x07, 0xfd, 0xfc, 0x00, 0xf7, 0xfb, 0xec, 0x16, 0x01, 0xf5,
    0x07, 0xfc, 0xfb, 0xfa, 0x0a, 0xf2, 0x0b, 0xfa, 0xf9, 0x16, 0xfb, 0x00,
    0xfe, 0x04, 0x03, 0xf9, 0xff, 0x06, 0x02, 0xfd, 0x0a, 0xf7, 0x04, 0xfe,
    0xea, 0x07, 0xff, 0xf8, 0xfb, 0xf9, 0xf8, 0x01, 0xfd, 0xf7, 0xf5, 0xfa,
    0x00, 0xfb, 0xfe, 0xf1, 0x01, 0x00, 0x02, 0xfa, 0xf9, 0xff, 0x08, 0xfe,
    0xfa, 0x01, 0x05, 0xf1, 0xfb, 0x05, 0xff, 0x0d, 0x0e, 0xfa, 0x02, 0xf5,
    0xf7, 0x06, 0x04, 0x0a, 0x04, 0x05, 0xfa, 0xfe, 0x06, 0xf7, 0x1f, 0xfa,
    0x0b, 0xf9, 0xfb, 0xfc, 0xfc, 0xfb, 0xfd, 0xf7, 0x0d, 0x05, 0x05, 0x01,
    0x06, 0x00, 0xf0, 0xfb, 0x11, 0x02, 0x01, 0x02, 0x00, 0x00, 0xff, 0xe5,
    0x07, 0x07, 0x00, 0x08, 0x07, 0xfb, 0xf5, 0xf6, 0x05, 0x0e, 0x0a, 0x0a,
    0xf5, 0x00, 0xf5, 0xfd, 0xfe, 0xfb, 0xfc, 0x07, 0xf8, 0xfd, 0x0b, 0x02,
    0xf3, 0x00, 0xfc, 0x05, 0xfa, 0x0a, 0x01, 0xfb, 0xee, 0x0a, 0x01, 0xfa,
    0xfb, 0x09, 0x07, 0x01, 0x03, 0xf7, 0x04, 0xfd, 0xfc, 0x04, 0x01, 0xd7,
    0x02, 0xfa, 0xfa, 0x05, 0x0d, 0xec, 0xff, 0xfc, 0x0d, 0xff, 0xfb, 0x00,
    0xf8, 0xf9, 0xfc, 0x1c, 0x00, 0x00, 0x09, 0x09, 0xfc, 0xef, 0x11, 0x07,
    0x0b, 0x03, 0xfc, 0xf6, 0xf3, 0x0a, 0xff, 0xf5, 0x05, 0x06, 0xff, 0x04,
    0x00, 0x04, 0x04, 0xf6, 0xee, 0xfc, 0x02, 0x05, 0xfc, 0xea, 0xfc, 0xed,
    0xfd, 0xfd, 0x03, 0xfa, 0x09, 0xf6, 0xe6, 0xe9, 0xf6, 0x04, 0x02, 0x00,
    0xfc, 0x04, 0x00, 0x0e, 0xf6, 0xf8, 0x01, 0xff, 0xf1, 0x07, 0xec, 0x08,
    0xf1, 0x03, 0xff, 0xf5, 0x01, 0xfc, 0xfa, 0x0e, 0xfb, 0xf7, 0x09, 0x19,
    0x06, 0xfb, 0x00, 0x08, 0xf8, 0xfe, 0xf2, 0xfc, 0x06, 0x0e, 0x07, 0x05,
    0x02, 0x0e, 0xfb, 0xf1, 0x00, 0xfd, 0xfb, 0xea, 0x0c, 0xfc, 0xf8, 0xf8,
    0xfa, 0xe8, 0xff, 0xee, 0xf9, 0xf7, 0x01, 0x02, 0x02, 0x10, 0xd0, 0x0a,
    0x04, 0x04, 0x01, 0x05, 0x06, 0x0f, 0x01, 0xdb, 0x00, 0xf5, 0x02, 0x06,
    0x06, 0x01, 0xfa, 0xf3, 0x11, 0xfa, 0xfc, 0x08, 0x08, 0x09, 0xfd, 0xd1,
    0xfe, 0xfa, 0xfa, 0xdc, 0xf8, 0xfb, 0xf4, 0x01, 0xf7, 0x02, 0x06, 0xfe,
    0x05, 0x01, 0xf8, 0x00, 0x01, 0x06, 0xfd, 0xfa, 0xea, 0xfb, 0x03, 0x09,
    0x07, 0x04, 0x02, 0xfd, 0x0f, 0x00, 0xfe, 0xea, 0x03, 0xf9, 0x09, 0xf9,
    0xfd, 0x02, 0x0c, 0x09, 0x05, 0xef, 0xff, 0xfb, 0xfe, 0xfa, 0xff, 0x39,
    0x06, 0x08, 0x03, 0x00, 0xf5, 0xf8, 0x08, 0x08, 0xff, 0xf7, 0xf3, 0xfa,
    0x03, 0x06, 0xf9, 0x15, 0x04, 0x08, 0x02, 0xff, 0xed, 0x0f, 0xfe, 0x0e,
    0xf9, 0x0c, 0xfc, 0xff, 0x0a, 0xfa, 0x10, 0x06, 0xff, 0x0d, 0x0d, 0xfa,
    0x07, 0x04, 0x0f, 0x01, 0x06, 0x00, 0xf8, 0xfe, 0xe7, 0xda, 0x0a, 0xfa,
    0x0d, 0x13, 0x07, 0x08, 0x0b, 0xf8, 0x08, 0xd2, 0x05, 0x0a, 0x06, 0x0a,
    0x04, 0x02, 0x01, 0xcf, 0xf7, 0xfd, 0xfc, 0x05, 0x0f, 0xfd, 0xf8, 0xf7,
    0xf8, 0x09, 0x02, 0xfd, 0x04, 0x03, 0x08, 0x00, 0xfe, 0xfd, 0xfc, 0x0d,
    0x09, 0x0a, 0xf1, 0xfa, 0x0d, 0x03, 0x03, 0xfc, 0x06, 0xf9, 0x05, 0x0a,
    0x03, 0xfa, 0x0a, 0xff, 0xfb, 0x05, 0x07, 0x11, 0x00, 0x08, 0xf9, 0x04,
    0xf4, 0x0d, 0xee, 0x01, 0x05, 0x0c, 0x0e, 0x01, 0xfb, 0x03, 0xf7, 0x05,
    0xf5, 0xf5, 0x06, 0xfd, 0xfe, 0xfb, 0xfe, 0xc8, 0xff, 0x0b, 0xfa, 0xfe,
    0x0a, 0x09, 0xf3, 0x03, 0x0e, 0x04, 0xfc, 0x22, 0x04, 0xf9, 0x06, 0x09,
    0x00, 0xfe, 0x03, 0x0a, 0xfa, 0xf7, 0xf0, 0xee, 0xfc, 0x07, 0x04, 0x0a,
    0x0b, 0xfc, 0xfd, 0x04, 0x02, 0x0d, 0x09, 0x07, 0x0f, 0x03, 0x00, 0xf6,
    0xff, 0x03, 0xfb, 0x03, 0x06, 0xeb, 0x05, 0x0f, 0x07, 0x02, 0xfa, 0x00,
    0x0b, 0xf9, 0xee, 0x0b, 0x04, 0x0a, 0xfc, 0x06, 0x04, 0x01, 0xff, 0xfa,
    0x08, 0xfd, 0xfd, 0x02, 0xf2, 0x02, 0xf3, 0xf2, 0x1a, 0xf8, 0xf8, 0x0a,
    0x06, 0xfa, 0x02, 0xeb, 0xfa, 0x03, 0xf7, 0xfa, 0x02, 0x04, 0xe3, 0xf3,
    0xf8, 0xfa, 0xfe, 0x09, 0x10, 0x0c, 0x04, 0x02, 0xfe, 0x01, 0x07, 0xf5,
    0x00, 0xfd, 0xfb, 0x00, 0xf4, 0xfb, 0x06, 0x06, 0xf9, 0xfe, 0x08, 0xe3,
    0x02, 0xff, 0xff, 0x03, 0x06, 0x10, 0x28, 0xfe, 0x06, 0xff, 0x00, 0xfd,
    0xfa, 0xfe, 0x03, 0xdf, 0x00, 0xfe, 0x06, 0xfd, 0x03, 0xfe, 0x05, 0x01,
    0x0a, 0x04, 0xfe, 0x13, 0x03, 0x07, 0xfe, 0x01, 0x04, 0x00, 0x06, 0x10,
    0xf8, 0x21, 0x0d, 0x1a, 0xff, 0x07, 0x05, 0xfc, 0x05, 0xfa, 0xfb, 0xfb,
    0x02, 0xf4, 0xfa, 0x03, 0x06, 0x04, 0xfa, 0x09, 0x07, 0x00, 0x04, 0xff,
    0x07, 0xfd, 0x08, 0xfd, 0xff, 0x02, 0x05, 0xfc, 0x01, 0xf7, 0x09, 0x08,
    0x05, 0x02, 0xfd, 0x05, 0x07, 0x05, 0x01, 0xcf, 0x08, 0x07, 0xfd, 0x02,
    0x04, 0xf3, 0xf0, 0x08, 0x12, 0xfd, 0x06, 0x16, 0xa6, 0xfe, 0xff, 0xff,
    0x04, 0x00, 0x00, 0x00, 0x00, 0x01, 0x00, 0x00, 0x27, 0x06, 0x00, 0x00,
    0x48, 0xf0, 0xff, 0xff, 0xc8, 0xfd, 0xff, 0xff, 0x31, 0xfc, 0xff, 0xff,
    0x23, 0xff, 0xff, 0xff, 0x18, 0xf1, 0xff, 0xff, 0x9d, 0x01, 0x00, 0x00,
    0x61, 0x06, 0x00, 0x00, 0xe9, 0x0b, 0x00, 0x00, 0x6a, 0x06, 0x00, 0x00,
    0x0e, 0xf0, 0xff, 0xff, 0x3d, 0xfb, 0xff, 0xff, 0x5c, 0x14, 0x00, 0x00,
    0xcf, 0xff, 0xff, 0xff, 0xea, 0xff, 0xff, 0xff, 0xcf, 0x06, 0x00, 0x00,
    0x15, 0x04, 0x00, 0x00, 0xac, 0xf8, 0xff, 0xff, 0x31, 0x09, 0x00, 0x00,
    0xeb, 0x02, 0x00, 0x00, 0x79, 0x06, 0x00, 0x00, 0x6c, 0x00, 0x00, 0x00,
    0xcd, 0x05, 0x00, 0x00, 0x83, 0x0d, 0x00, 0x00, 0xac, 0x00, 0x00, 0x00,
    0x5b, 0x06, 0x00, 0x00, 0x81, 0x09, 0x00, 0x00, 0x57, 0xfd, 0xff, 0xff,
    0x77, 0x01, 0x00, 0x00, 0x1a, 0x05, 0x00, 0x00, 0x76, 0xf8, 0xff, 0xff,
    0xbc, 0x03, 0x00, 0x00, 0x7d, 0x09, 0x00, 0x00, 0x22, 0x13, 0x00, 0x00,
    0x82, 0x04, 0x00, 0x00, 0x4d, 0xfe, 0xff, 0xff, 0xb6, 0xfd, 0xff, 0xff,
    0x15, 0xff, 0xff, 0xff, 0xa5, 0xf0, 0xff, 0xff, 0x12, 0x07, 0x00, 0x00,
    0x4a, 0xf7, 0xff, 0xff, 0x63, 0x06, 0x00, 0x00, 0x87, 0xf5, 0xff, 0xff,
    0xef, 0xf2, 0xff, 0xff, 0x05, 0xfd, 0xff, 0xff, 0xb1, 0x17, 0x00, 0x00,
    0xbb, 0xf5, 0xff, 0xff, 0x45, 0x16, 0x00, 0x00, 0x1e, 0x01, 0x00, 0x00,
    0x36, 0x00, 0x00, 0x00, 0xb4, 0x0d, 0x00, 0x00, 0x2b, 0xf8, 0xff, 0xff,
    0x37, 0xfb, 0xff, 0xff, 0x1b, 0xfe, 0xff, 0xff, 0x34, 0x08, 0x00, 0x00,
    0x17, 0x07, 0x00, 0x00, 0x65, 0x0a, 0x00, 0x00, 0xc3, 0x00, 0x00, 0x00,
    0x47, 0x10, 0x00, 0x00, 0x48, 0xf2, 0xff, 0xff, 0x2a, 0xf1, 0xff, 0xff,
    0x32, 0xf4, 0xff, 0xff, 0x0c, 0x03, 0x00, 0x00, 0x56, 0xee, 0xff, 0xff,
    0xb2, 0xff, 0xff, 0xff, 0x04, 0x00, 0x00, 0x00, 0x40, 0x00, 0x00, 0x00,
    0xed, 0xef, 0x4f, 0x00, 0x02, 0x02, 0xdb, 0x00, 0x3c, 0x41, 0xeb, 0x16,
    0x2f, 0x0a, 0xd4, 0x1c, 0x02, 0x18, 0xe4, 0x00, 0xf8, 0x12, 0x00, 0x44,
    0xe3, 0x00, 0x01, 0x00, 0x00, 0xa4, 0x34, 0xfd, 0xe5, 0xf0, 0x00, 0x00,
    0x19, 0xf0, 0x00, 0x37, 0x04, 0x99, 0xfd, 0xf8, 0x12, 0x1f, 0x22, 0x81,
    0xe5, 0xd8, 0x29, 0x00, 0xcf, 0x01, 0x04, 0xbb, 0x29, 0x1c, 0xf5, 0x29,
    0xaa, 0x02, 0xd1, 0xf8, 0x00, 0x00, 0x06, 0x00, 0x08, 0x00, 0x04, 0x00,
    0x06, 0x00, 0x00, 0x00, 0x04, 0x00, 0x00, 0x00, 0x04, 0x00, 0x00, 0x00,
    0x4d, 0xfc, 0xff, 0xff, 0x84, 0xff, 0xff, 0xff, 0x88, 0xff, 0xff, 0xff,
    0x0f, 0x00, 0x00, 0x00, 0x4d, 0x4c, 0x49, 0x52, 0x20, 0x43, 0x6f, 0x6e,
    0x76, 0x65, 0x72, 0x74, 0x65, 0x64, 0x2e, 0x00, 0x01, 0x00, 0x00, 0x00,
    0x14, 0x00, 0x00, 0x00, 0x00, 0x00, 0x0e, 0x00, 0x18, 0x00, 0x14, 0x00,
    0x10, 0x00, 0x0c, 0x00, 0x08, 0x00, 0x04, 0x00, 0x0e, 0x00, 0x00, 0x00,
    0x14, 0x00, 0x00, 0x00, 0x1c, 0x00, 0x00, 0x00, 0xdc, 0x00, 0x00, 0x00,
    0xe0, 0x00, 0x00, 0x00, 0xe4, 0x00, 0x00, 0x00, 0x04, 0x00, 0x00, 0x00,
    0x6d, 0x61, 0x69, 0x6e, 0x00, 0x00, 0x00, 0x00, 0x03, 0x00, 0x00, 0x00,
    0x84, 0x00, 0x00, 0x00, 0x3c, 0x00, 0x00, 0x00, 0x04, 0x00, 0x00, 0x00,
    0x96, 0xff, 0xff, 0xff, 0x14, 0x00, 0x00, 0x00, 0x00, 0x00, 0x00, 0x08,
    0x10, 0x00, 0x00, 0x00, 0x14, 0x00, 0x00, 0x00, 0x04, 0x00, 0x04, 0x00,
    0x04, 0x00, 0x00, 0x00, 0x01, 0x00, 0x00, 0x00, 0x09, 0x00, 0x00, 0x00,
    0x03, 0x00, 0x00, 0x00, 0x08, 0x00, 0x00, 0x00, 0x02, 0x00, 0x00, 0x00,
    0x01, 0x00, 0x00, 0x00, 0xca, 0xff, 0xff, 0xff, 0x10, 0x00, 0x00, 0x00,
    0x00, 0x00, 0x00, 0x08, 0x10, 0x00, 0x00, 0x00, 0x14, 0x00, 0x00, 0x00,
    0xba, 0xff, 0xff, 0xff, 0x00, 0x00, 0x00, 0x01, 0x01, 0x00, 0x00, 0x00,
    0x08, 0x00, 0x00, 0x00, 0x03, 0x00, 0x00, 0x00, 0x07, 0x00, 0x00, 0x00,
    0x04, 0x00, 0x00, 0x00, 0x03, 0x00, 0x00, 0x00, 0x00, 0x00, 0x0e, 0x00,
    0x16, 0x00, 0x00, 0x00, 0x10, 0x00, 0x0c, 0x00, 0x0b, 0x00, 0x04, 0x00,
    0x0e, 0x00, 0x00, 0x00, 0x18, 0x00, 0x00, 0x00, 0x00, 0x00, 0x00, 0x08,
    0x18, 0x00, 0x00, 0x00, 0x1c, 0x00, 0x00, 0x00, 0x00, 0x00, 0x06, 0x00,
    0x08, 0x00, 0x07, 0x00, 0x06, 0x00, 0x00, 0x00, 0x00, 0x00, 0x00, 0x01,
    0x01, 0x00, 0x00, 0x00, 0x07, 0x00, 0x00, 0x00, 0x03, 0x00, 0x00, 0x00,
    0x00, 0x00, 0x00, 0x00, 0x06, 0x00, 0x00, 0x00, 0x05, 0x00, 0x00, 0x00,
    0x01, 0x00, 0x00, 0x00, 0x09, 0x00, 0x00, 0x00, 0x01, 0x00, 0x00, 0x00,
    0x00, 0x00, 0x00, 0x00, 0x0a, 0x00, 0x00, 0x00, 0x54, 0x06, 0x00, 0x00,
    0xb4, 0x05, 0x00, 0x00, 0xb0, 0x04, 0x00, 0x00, 0x14, 0x04, 0x00, 0x00,
    0x18, 0x03, 0x00, 0x00, 0xa4, 0x02, 0x00, 0x00, 0x38, 0x02, 0x00, 0x00,
    0x8c, 0x01, 0x00, 0x00, 0x80, 0x00, 0x00, 0x00, 0x04, 0x00, 0x00, 0x00,
    0xea, 0xf9, 0xff, 0xff, 0x00, 0x00, 0x00, 0x01, 0x18, 0x00, 0x00, 0x00,
    0x20, 0x00, 0x00, 0x00, 0x3c, 0x00, 0x00, 0x00, 0x0a, 0x00, 0x00, 0x00,
    0x00, 0x00, 0x00, 0x09, 0x50, 0x00, 0x00, 0x00, 0x02, 0x00, 0x00, 0x00,
    0xff, 0xff, 0xff, 0xff, 0x01, 0x00, 0x00, 0x00, 0xd4, 0xf9, 0xff, 0xff,
    0x08, 0x00, 0x00, 0x00, 0x10, 0x00, 0x00, 0x00, 0x01, 0x00, 0x00, 0x00,
    0x0f, 0x00, 0x00, 0x00, 0x00, 0x00, 0x00, 0x00, 0x01, 0x00, 0x00, 0x00,
    0xa6, 0x88, 0x82, 0x3c, 0x19, 0x00, 0x00, 0x00, 0x53, 0x74, 0x61, 0x74,
    0x65, 0x66, 0x75, 0x6c, 0x50, 0x61, 0x72, 0x74, 0x69, 0x74, 0x69, 0x6f,
    0x6e, 0x65, 0x64, 0x43, 0x61, 0x6c, 0x6c, 0x3a, 0x30, 0x00, 0x00, 0x00,
    0x02, 0x00, 0x00, 0x00, 0x01, 0x00, 0x00, 0x00, 0x01, 0x00, 0x00, 0x00,
    0x62, 0xfa, 0xff, 0xff, 0x00, 0x00, 0x00, 0x01, 0x18, 0x00, 0x00, 0x00,
    0x20, 0x00, 0x00, 0x00, 0x3c, 0x00, 0x00, 0x00, 0x09, 0x00, 0x00, 0x00,
    0x00, 0x00, 0x00, 0x09, 0xe0, 0x00, 0x00, 0x00, 0x02, 0x00, 0x00, 0x00,
    0xff, 0xff, 0xff, 0xff, 0x40, 0x00, 0x00, 0x00, 0x4c, 0xfa, 0xff, 0xff,
    0x08, 0x00, 0x00, 0x00, 0x10, 0x00, 0x00, 0x00, 0x01, 0x00, 0x00, 0x00,
    0x80, 0xff, 0xff, 0xff, 0xff, 0xff, 0xff, 0xff, 0x01, 0x00, 0x00, 0x00,
    0x3b, 0xea, 0x01, 0x3d, 0xab, 0x00, 0x00, 0x00, 0x73, 0x65, 0x71, 0x75,
    0x65, 0x6e, 0x74, 0x69, 0x61, 0x6c, 0x2f, 0x62, 0x61, 0x74, 0x63, 0x68,
    0x5f, 0x6e, 0x6f, 0x72, 0x6d, 0x61, 0x6c, 0x69, 0x7a, 0x61, 0x74, 0x69,
    0x6f, 0x6e, 0x2f, 0x62, 0x61, 0x74, 0x63, 0x68, 0x6e, 0x6f, 0x72, 0x6d,
    0x2f, 0x6d, 0x75, 0x6c, 0x5f, 0x31, 0x3b, 0x73, 0x65, 0x71, 0x75, 0x65,
    0x6e, 0x74, 0x69, 0x61, 0x6c, 0x2f, 0x62, 0x61, 0x74, 0x63, 0x68, 0x5f,
    0x6e, 0x6f, 0x72, 0x6d, 0x61, 0x6c, 0x69, 0x7a, 0x61, 0x74, 0x69, 0x6f,
    0x6e, 0x2f, 0x62, 0x61, 0x74, 0x63, 0x68, 0x6e, 0x6f, 0x72, 0x6d, 0x2f,
    0x61, 0x64, 0x64, 0x5f, 0x31, 0x3b, 0x73, 0x65, 0x71, 0x75, 0x65, 0x6e,
    0x74, 0x69, 0x61, 0x6c, 0x2f, 0x64, 0x65, 0x6e, 0x73, 0x65, 0x5f, 0x31,
    0x2f, 0x4d, 0x61, 0x74, 0x4d, 0x75, 0x6c, 0x3b, 0x73, 0x65, 0x71, 0x75,
    0x65, 0x6e, 0x74, 0x69, 0x61, 0x6c, 0x2f, 0x64, 0x65, 0x6e, 0x73, 0x65,
    0x5f, 0x31, 0x2f, 0x52, 0x65, 0x6c, 0x75, 0x3b, 0x73, 0x65, 0x71, 0x75,
    0x65, 0x6e, 0x74, 0x69, 0x61, 0x6c, 0x2f, 0x64, 0x65, 0x6e, 0x73, 0x65,
    0x5f, 0x31, 0x2f, 0x42, 0x69, 0x61, 0x73, 0x41, 0x64, 0x64, 0x31, 0x00,
    0x02, 0x00, 0x00, 0x00, 0x01, 0x00, 0x00, 0x00, 0x40, 0x00, 0x00, 0x00,
    0x6a, 0xfb, 0xff, 0xff, 0x00, 0x00, 0x00, 0x01, 0x18, 0x00, 0x00, 0x00,
    0x20, 0x00, 0x00, 0x00, 0x40, 0x00, 0x00, 0x00, 0x08, 0x00, 0x00, 0x00,
    0x00, 0x00, 0x00, 0x09, 0x80, 0x00, 0x00, 0x00, 0x02, 0x00, 0x00, 0x00,
    0xff, 0xff, 0xff, 0xff, 0x40, 0x00, 0x00, 0x00, 0x54, 0xfb, 0xff, 0xff,
    0x08, 0x00, 0x00, 0x00, 0x14, 0x00, 0x00, 0x00, 0x01, 0x00, 0x00, 0x00,
    0x80, 0xff, 0xff, 0xff, 0xff, 0xff, 0xff, 0xff, 0x00, 0x00, 0x00, 0x00,
    0x01, 0x00, 0x00, 0x00, 0x2a, 0x4d, 0x99, 0x3b, 0x46, 0x00, 0x00, 0x00,
    0x73, 0x65, 0x71, 0x75, 0x65, 0x6e, 0x74, 0x69, 0x61, 0x6c, 0x2f, 0x64,
    0x65, 0x6e, 0x73, 0x65, 0x2f, 0x4d, 0x61, 0x74, 0x4d, 0x75, 0x6c, 0x3b,
    0x73, 0x65, 0x71, 0x75, 0x65, 0x6e, 0x74, 0x69, 0x61, 0x6c, 0x2f, 0x64,
    0x65, 0x6e, 0x73, 0x65, 0x2f, 0x52, 0x65, 0x6c, 0x75, 0x3b, 0x73, 0x65,
    0x71, 0x75, 0x65, 0x6e, 0x74, 0x69, 0x61, 0x6c, 0x2f, 0x64, 0x65, 0x6e,
    0x73, 0x65, 0x2f, 0x42, 0x69, 0x61, 0x73, 0x41, 0x64, 0x64, 0x00, 0x00,
    0x02, 0x00, 0x00, 0x00, 0x01, 0x00, 0x00, 0x00, 0x40, 0x00, 0x00, 0x00,
    0xae, 0xfc, 0xff, 0xff, 0x00, 0x00, 0x00, 0x01, 0x14, 0x00, 0x00, 0x00,
    0x34, 0x00, 0x00, 0x00, 0x07, 0x00, 0x00, 0x00, 0x00, 0x00, 0x00, 0x09,
    0x44, 0x00, 0x00, 0x00, 0xec, 0xfb, 0xff, 0xff, 0x08, 0x00, 0x00, 0x00,
    0x14, 0x00, 0x00, 0x00, 0x01, 0x00, 0x00, 0x00, 0x00, 0x00, 0x00, 0x00,
    0x00, 0x00, 0x00, 0x00, 0x00, 0x00, 0x00, 0x00, 0x01, 0x00, 0x00, 0x00,
    0x36, 0xbe, 0x9e, 0x3b, 0x17, 0x00, 0x00, 0x00, 0x73, 0x65, 0x71, 0x75,
    0x65, 0x6e, 0x74, 0x69, 0x61, 0x6c, 0x2f, 0x64, 0x65, 0x6e, 0x73, 0x65,
    0x2f, 0x4d, 0x61, 0x74, 0x4d, 0x75, 0x6c, 0x00, 0x02, 0x00, 0x00, 0x00,
    0x40, 0x00, 0x00, 0x00, 0x07, 0x00, 0x00, 0x00, 0x16, 0xfd, 0xff, 0xff,
    0x00, 0x00, 0x00, 0x01, 0x14, 0x00, 0x00, 0x00, 0x30, 0x00, 0x00, 0x00,
    0x06, 0x00, 0x00, 0x00, 0x00, 0x00, 0x00, 0x02, 0x50, 0x00, 0x00, 0x00,
    0x54, 0xfc, 0xff, 0xff, 0x08, 0x00, 0x00, 0x00, 0x10, 0x00, 0x00, 0x00,
    0x01, 0x00, 0x00, 0x00, 0x00, 0x00, 0x00, 0x00, 0x00, 0x00, 0x00, 0x00,
    0x01, 0x00, 0x00, 0x00, 0xb4, 0x34, 0x1f, 0x38, 0x27, 0x00, 0x00, 0x00,
    0x73, 0x65, 0x71, 0x75, 0x65, 0x6e, 0x74, 0x69, 0x61, 0x6c, 0x2f, 0x64,
    0x65, 0x6e, 0x73, 0x65, 0x2f, 0x42, 0x69, 0x61, 0x73, 0x41, 0x64, 0x64,
    0x2f, 0x52, 0x65, 0x61, 0x64, 0x56, 0x61, 0x72, 0x69, 0x61, 0x62, 0x6c,
    0x65, 0x4f, 0x70, 0x00, 0x01, 0x00, 0x00, 0x00, 0x40, 0x00, 0x00, 0x00,
    0x86, 0xfd, 0xff, 0xff, 0x00, 0x00, 0x00, 0x01, 0x14, 0x00, 0x00, 0x00,
    0x30, 0x00, 0x00, 0x00, 0x05, 0x00, 0x00, 0x00, 0x00, 0x00, 0x00, 0x09,
    0xd4, 0x00, 0x00, 0x00, 0xc4, 0xfc, 0xff, 0xff, 0x08, 0x00, 0x00, 0x00,
    0x10, 0x00, 0x00, 0x00, 0x01, 0x00, 0x00, 0x00, 0x00, 0x00, 0x00, 0x00,
    0x00, 0x00, 0x00, 0x00, 0x01, 0x00, 0x00, 0x00, 0xec, 0x59, 0xfe, 0x3d,
    0xaa, 0x00, 0x00, 0x00, 0x73, 0x65, 0x71, 0x75, 0x65, 0x6e, 0x74, 0x69,
    0x61, 0x6c, 0x2f, 0x62, 0x61, 0x74, 0x63, 0x68, 0x5f, 0x6e, 0x6f, 0x72,
    0x6d, 0x61, 0x6c, 0x69, 0x7a, 0x61, 0x74, 0x69, 0x6f, 0x6e, 0x2f, 0x62,
    0x61, 0x74, 0x63, 0x68, 0x6e, 0x6f, 0x72, 0x6d, 0x2f, 0x6d, 0x75, 0x6c,
    0x5f, 0x31, 0x3b, 0x73, 0x65, 0x71, 0x75, 0x65, 0x6e, 0x74, 0x69, 0x61,
    0x6c, 0x2f, 0x62, 0x61, 0x74, 0x63, 0x68, 0x5f, 0x6e, 0x6f, 0x72, 0x6d,
    0x61, 0x6c, 0x69, 0x7a, 0x61, 0x74, 0x69, 0x6f, 0x6e, 0x2f, 0x62, 0x61,
    0x74, 0x63, 0x68, 0x6e, 0x6f, 0x72, 0x6d, 0x2f, 0x61, 0x64, 0x64, 0x5f,
    0x31, 0x3b, 0x73, 0x65, 0x71, 0x75, 0x65, 0x6e, 0x74, 0x69, 0x61, 0x6c,
    0x2f, 0x64, 0x65, 0x6e, 0x73, 0x65, 0x5f, 0x31, 0x2f, 0x4d, 0x61, 0x74,
    0x4d, 0x75, 0x6c, 0x3b, 0x73, 0x65, 0x71, 0x75, 0x65, 0x6e, 0x74, 0x69,
    0x61, 0x6c, 0x2f, 0x64, 0x65, 0x6e, 0x73, 0x65, 0x5f, 0x31, 0x2f, 0x52,
    0x65, 0x6c, 0x75, 0x3b, 0x73, 0x65, 0x71, 0x75, 0x65, 0x6e, 0x74, 0x69,
    0x61, 0x6c, 0x2f, 0x64, 0x65, 0x6e, 0x73, 0x65, 0x5f, 0x31, 0x2f, 0x42,
    0x69, 0x61, 0x73, 0x41, 0x64, 0x64, 0x00, 0x00, 0x02, 0x00, 0x00, 0x00,
    0x40, 0x00, 0x00, 0x00, 0x40, 0x00, 0x00, 0x00, 0x7e, 0xfe, 0xff, 0xff,
    0x00, 0x00, 0x00, 0x01, 0x14, 0x00, 0x00, 0x00, 0x30, 0x00, 0x00, 0x00,
    0x04, 0x00, 0x00, 0x00, 0x00, 0x00, 0x00, 0x02, 0x78, 0x00, 0x00, 0x00,
    0xbc, 0xfd, 0xff, 0xff, 0x08, 0x00, 0x00, 0x00, 0x10, 0x00, 0x00, 0x00,
    0x01, 0x00, 0x00, 0x00, 0x00, 0x00, 0x00, 0x00, 0x00, 0x00, 0x00, 0x00,
    0x01, 0x00, 0x00, 0x00, 0x69, 0x50, 0x18, 0x3a, 0x4c, 0x00, 0x00, 0x00,
    0x73, 0x65, 0x71, 0x75, 0x65, 0x6e, 0x74, 0x69, 0x61, 0x6c, 0x2f, 0x64,
    0x65, 0x6e, 0x73, 0x65, 0x5f, 0x31, 0x2f, 0x4d, 0x61, 0x74, 0x4d, 0x75,
    0x6c, 0x3b, 0x73, 0x65, 0x71, 0x75, 0x65, 0x6e, 0x74, 0x69, 0x61, 0x6c,
    0x2f, 0x64, 0x65, 0x6e, 0x73, 0x65, 0x5f, 0x31, 0x2f, 0x52, 0x65, 0x6c,
    0x75, 0x3b, 0x73, 0x65, 0x71, 0x75, 0x65, 0x6e, 0x74, 0x69, 0x61, 0x6c,
    0x2f, 0x64, 0x65, 0x6e, 0x73, 0x65, 0x5f, 0x31, 0x2f, 0x42, 0x69, 0x61,
    0x73, 0x41, 0x64, 0x64, 0x00, 0x00, 0x00, 0x00, 0x01, 0x00, 0x00, 0x00,
    0x40, 0x00, 0x00, 0x00, 0x16, 0xff, 0xff, 0xff, 0x00, 0x00, 0x00, 0x01,
    0x14, 0x00, 0x00, 0x00, 0x34, 0x00, 0x00, 0x00, 0x03, 0x00, 0x00, 0x00,
    0x00, 0x00, 0x00, 0x09, 0xc4, 0x00, 0x00, 0x00, 0x54, 0xfe, 0xff, 0xff,
    0x08, 0x00, 0x00, 0x00, 0x14, 0x00, 0x00, 0x00, 0x01, 0x00, 0x00, 0x00,
    0x00, 0x00, 0x00, 0x00, 0x00, 0x00, 0x00, 0x00, 0x00, 0x00, 0x00, 0x00,
    0x01, 0x00, 0x00, 0x00, 0xb0, 0xeb, 0x23, 0x3a, 0x96, 0x00, 0x00, 0x00,
    0x73, 0x65, 0x71, 0x75, 0x65, 0x6e, 0x74, 0x69, 0x61, 0x6c, 0x2f, 0x62,
    0x61, 0x74, 0x63, 0x68, 0x5f, 0x6e, 0x6f, 0x72, 0x6d, 0x61, 0x6c, 0x69,
    0x7a, 0x61, 0x74, 0x69, 0x6f, 0x6e, 0x5f, 0x31, 0x2f, 0x62, 0x61, 0x74,
    0x63, 0x68, 0x6e, 0x6f, 0x72, 0x6d, 0x2f, 0x6d, 0x75, 0x6c, 0x5f, 0x31,
    0x3b, 0x73, 0x65, 0x71, 0x75, 0x65, 0x6e, 0x74, 0x69, 0x61, 0x6c, 0x2f,
    0x62, 0x61, 0x74, 0x63, 0x68, 0x5f, 0x6e, 0x6f, 0x72, 0x6d, 0x61, 0x6c,
    0x69, 0x7a, 0x61, 0x74, 0x69, 0x6f, 0x6e, 0x5f, 0x31, 0x2f, 0x62, 0x61,
    0x74, 0x63, 0x68, 0x6e, 0x6f, 0x72, 0x6d, 0x2f, 0x61, 0x64, 0x64, 0x5f,
    0x31, 0x3b, 0x73, 0x65, 0x71, 0x75, 0x65, 0x6e, 0x74, 0x69, 0x61, 0x6c,
    0x2f, 0x64, 0x65, 0x6e, 0x73, 0x65, 0x5f, 0x32, 0x2f, 0x4d, 0x61, 0x74,
    0x4d, 0x75, 0x6c, 0x3b, 0x73, 0x65, 0x71, 0x75, 0x65, 0x6e, 0x74, 0x69,
    0x61, 0x6c, 0x2f, 0x64, 0x65, 0x6e, 0x73, 0x65, 0x5f, 0x32, 0x2f, 0x42,
    0x69, 0x61, 0x73, 0x41, 0x64, 0x64, 0x00, 0x00, 0x02, 0x00, 0x00, 0x00,
    0x01, 0x00, 0x00, 0x00, 0x40, 0x00, 0x00, 0x00, 0x00, 0x00, 0x16, 0x00,
    0x1c, 0x00, 0x18, 0x00, 0x17, 0x00, 0x10, 0x00, 0x0c, 0x00, 0x08, 0x00,
    0x00, 0x00, 0x00, 0x00, 0x00, 0x00, 0x07, 0x00, 0x16, 0x00, 0x00, 0x00,
    0x00, 0x00, 0x00, 0x01, 0x14, 0x00, 0x00, 0x00, 0x34, 0x00, 0x00, 0x00,
    0x02, 0x00, 0x00, 0x00, 0x00, 0x00, 0x00, 0x02, 0x64, 0x00, 0x00, 0x00,
    0x54, 0xff, 0xff, 0xff, 0x08, 0x00, 0x00, 0x00, 0x14, 0x00, 0x00, 0x00,
    0x01, 0x00, 0x00, 0x00, 0x00, 0x00, 0x00, 0x00, 0x00, 0x00, 0x00, 0x00,
    0x00, 0x00, 0x00, 0x00, 0x01, 0x00, 0x00, 0x00, 0x7e, 0x5f, 0xa6, 0x37,
    0x34, 0x00, 0x00, 0x00, 0x73, 0x65, 0x71, 0x75, 0x65, 0x6e, 0x74, 0x69,
    0x61, 0x6c, 0x2f, 0x64, 0x65, 0x6e, 0x73, 0x65, 0x5f, 0x32, 0x2f, 0x4d,
    0x61, 0x74, 0x4d, 0x75, 0x6c, 0x3b, 0x73, 0x65, 0x71, 0x75, 0x65, 0x6e,
    0x74, 0x69, 0x61, 0x6c, 0x2f, 0x64, 0x65, 0x6e, 0x73, 0x65, 0x5f, 0x32,
    0x2f, 0x42, 0x69, 0x61, 0x73, 0x41, 0x64, 0x64, 0x00, 0x00, 0x00, 0x00,
    0x01, 0x00, 0x00, 0x00, 0x01, 0x00, 0x00, 0x00, 0x00, 0x00, 0x16, 0x00,
    0x20, 0x00, 0x1c, 0x00, 0x1b, 0x00, 0x14, 0x00, 0x10, 0x00, 0x0c, 0x00,
    0x00, 0x00, 0x00, 0x00, 0x08, 0x00, 0x07, 0x00, 0x16, 0x00, 0x00, 0x00,
    0x00, 0x00, 0x00, 0x01, 0x18, 0x00, 0x00, 0x00, 0x2c, 0x00, 0x00, 0x00,
    0x48, 0x00, 0x00, 0x00, 0x01, 0x00, 0x00, 0x00, 0x00, 0x00, 0x00, 0x09,
    0x5c, 0x00, 0x00, 0x00, 0x02, 0x00, 0x00, 0x00, 0xff, 0xff, 0xff, 0xff,
    0x07, 0x00, 0x00, 0x00, 0x0c, 0x00, 0x0c, 0x00, 0x00, 0x00, 0x00, 0x00,
    0x08, 0x00, 0x04, 0x00, 0x0c, 0x00, 0x00, 0x00, 0x08, 0x00, 0x00, 0x00,
    0x10, 0x00, 0x00, 0x00, 0x01, 0x00, 0x00, 0x00, 0xff, 0xff, 0xff, 0xff,
    0xff, 0xff, 0xff, 0xff, 0x01, 0x00, 0x00, 0x00, 0x8b, 0x5f, 0x00, 0x3c,
    0x19, 0x00, 0x00, 0x00, 0x73, 0x65, 0x72, 0x76, 0x69, 0x6e, 0x67, 0x5f,
    0x64, 0x65, 0x66, 0x61, 0x75, 0x6c, 0x74, 0x5f, 0x69, 0x6e, 0x70, 0x75,
    0x74, 0x5f, 0x31, 0x3a, 0x30, 0x00, 0x00, 0x00, 0x02, 0x00, 0x00, 0x00,
    0x01, 0x00, 0x00, 0x00, 0x07, 0x00, 0x00, 0x00, 0x01, 0x00, 0x00, 0x00,
    0x10, 0x00, 0x00, 0x00, 0x0c, 0x00, 0x10, 0x00, 0x0f, 0x00, 0x00, 0x00,
    0x08, 0x00, 0x04, 0x00, 0x0c, 0x00, 0x00, 0x00, 0x09, 0x00, 0x00, 0x00,
    0x04, 0x00, 0x00, 0x00, 0x00, 0x00, 0x00, 0x09
  };
  const unsigned int sin_predictor_tflite_len = 7760;
